#version: 0.2
Ġ t
Ġ a
i n
r e
h e
o n
t i
e n
Ġ o
e r
Ġ s
Ġt he
Ġ c
e d
a l
Ġ p
Ġ in
a t
e s
o r
i s
Ġa n
Ġo f
Ġ w
a n
i t
ti on
Ġ m
Ġ d
Ġ f
r o
Ġ b
Ġan d
i c
a s
a r
in g
en t
Ġ re
l e
Ġ e
Ġt o
Ġ (
a tion
o m
u s
e l
e c
u l
Ġ T
o s
a c
Ġ n
i d
Ġ h
Ġt h
o l
u r
Ġ l
v e
it h
l y
e t
Ġw ith
i m
Ġ is
Ġf or
u n
c e
i g
o t
Ġ g
i l
Ġ A
a ti
Ġc on
t er
Ġ 1
Ġ C
Ġs t
u t
Ġb e
e re
Ġ I
Ġp ro
r a
ĠT he
Ġa s
o w
Ġ S
m ent
u c
re s
a b
i f
Ġo r
Ġ v
u m
Ġ 2
Ġa l
t s
o d
Ġ P
Ġth at
o p
Ġ on
a m
o c
Ġe x
s t
at ed
i r
a g
v er
i b
u d
at e
ti c
i on
Ġc om
it y
Ġw as
s e
u p
he r
Ġa re
u re
ro m
a y
Ġ M
t ed
q u
t h
ent s
e m
) .
Ġa t
Ġ r
Ġb y
ic al
Ġ -
Ġa c
in e
Ġ D
Ġ H
el l
o g
es s
Ġ us
Ġ F
a in
0 0
Ġw ere
r i
a d
Ġre s
Ġp ati
â Ģ
Ġs h
f f
Ġd e
an t
d i
Ġd is
as e
Ġ R
Ġw h
ĠI n
Ġin c
Ġa d
u g
er s
p l
t r
Ġ E
Ġ N
o re
u b
Ġc h
Ġ B
Ġf rom
Ġ 3
en d
p or
Ġn ot
Ġ im
Ġ he
v el
t e
Ġcom p
i es
ation s
or m
en ce
un d
Ġs e
Ġpati ents
p h
p ec
Ġ #
ig h
Ġ G
Ġp re
r an
a re
i z
o us
res s
p er
Ġ le
Ġh a
re at
i ti
i a
y s
Ġst ud
d uc
Ġn e
es t
t her
ab le
Ġc an
c h
Ġin f
o ul
ag e
ar y
Ġp er
oul d
Ġ O
Ġd i
Ġc ell
Ġ [
v id
is t
Ġ 0
Ġc l
Ġ it
Ġ W
) ,
ig n
g e
tion s
en s
ac t
Ġre c
Ġ L
ff ec
Ġs y
Ġha ve
Ġcon t
i al
an d
Ġ 4
p p
os t
if ic
ic h
os e
Ġth is
Ġ 5
y p
Ġg en
i v
o ur
Ġas s
Ġ y
an ce
p t
Ġa b
Ġp l
Ġin t
al ly
en ti
ol og
a k
as t
if f
reat ment
i p
Ġw e
re f
l ud
Ġm ay
ul ar
Ġwh ich
l ow
ti ve
ere n
il l
re n
or s
Ġcon s
Ġd iff
en c
le c
as ed
Ġp ar
al l
ran s
om e
on g
Ġin ter
Ġg ro
Ġ k
ti v
Ġt reatment
d ing
e p
Ġ un
v i
e ar
or y
u e
Ġ U
p le
Ġw he
Ġre g
a us
ati ve
s o
a p
on e
Ġe ffec
Ġs ub
ra p
ĠT h
Ġt rans
m in
igh t
Ġh as
Ġbe en
Ġs ign
âĢ ĵ
Ġa pp
o ut
Ġm et
id e
er v
Ġe t
Ġp h
ug h
ro l
Ġm e
Ġo b
Ġsh ould
Ġal so
Ġo ther
ul t
. ,
Ġex p
w e
Ġinc lud
Ġs ur
Ġsh ow
f ter
Ġs c
Ġc o
Ġb et
om m
por t
Ġ 6
at es
Ġcell s
ac h
ec tion
Ġus ed
Ġstud y
Ġinc re
Ġdiff eren
N A
at h
l o
ar i
al s
el y
Ġth an
Ġ2 00
v en
f orm
on s
uc h
Ġs pec
b ib
in ical
Ġ# #
oc i
d ic
Ġp res
Ġn o
Ġ en
re d
ti m
Ġm ed
Ġm od
e w
Ġgro up
te in
y l
an c
Ġan al
as s
Ġm an
Ġp os
i ve
al th
o und
is k
we en
as es
Ġthe se
ar d
at a
Ġus e
Ġp r
i ed
Ġa fter
un c
Ġbet ween
Ġm ore
a il
Ġcom m
Ġdis e
os is
Ġd et
Ġal l
Ġa g
ac e
Ġs up
Ġre l
Ġa r
ress ion
Ġan ti
ĠTh is
e ver
st r
at er
Ġf ol
v al
Ġthe ir
ere d
il ity
c ess
Ġt im
ul ts
Ġ V
0 1
r ug
re e
ro s
Ġle vel
y m
o x
Ġb ut
Ġr isk
Ġus ing
Ġpro tein
Ġres p
on d
Ġ 7
ur ing
Ġcl inical
c er
ot h
is s
aus e
omm end
il d
Ġsign ific
t ain
ic e
Ġc ar
Ġo ut
u al
rap y
Ġim p
Ġ qu
n e
Ġ und
di tion
ac k
m s
Ġwh o
t al
st em
Ġm on
Ġh igh
Ġfol low
Ġstud ies
ul ation
t ing
por ted
Ġt w
e f
u res
u id
at ing
re c
Ġc or
vel op
Ġa m
Ġ K
Ġs uch
Ġdise ase
ys is
Ġo ver
ec h
Ġac tiv
an g
Ġd ata
' s
Ġ ro
ati c
Ġst r
Ġin v
i k
Ġl ow
d er
b er
Ġd ec
Ġhe alth
Ġs p
iz ed
Ġapp ro
Ġsignific ant
Ġ1 0
an s
Ġd es
c l
Ġ1 9
Ġm g
ent r
Ġund er
are d
Ġc ol
ra in
ag n
ĠA l
Ġs am
Ġon e
Ġde velop
Ġ 9
Ġrec ommend
Ġass oci
c ur
Ġy ear
Ġcont rol
it e
Ġ 8
unc tion
he d
ec t
Ġsy stem
v ed
Ġ =
ow ever
Ġtw o
d e
Ġ up
i um
or k
ay s
Ġv ari
ment s
Ġm o
Ġex per
vid ence
Ġd uring
i le
Ġf act
in al
Ġh ad
Ġpro vid
Ġpati ent
er y
u tion
Ġc are
ĠS t
he m
Ġd rug
ic i
Ġh y
in es
Ġfor m
g en
he s
Ġo c
vel y
Ġre p
Ġ Â
Ġwhe n
1 0
Ġcons id
Ġre ce
ĠI t
ow n
Ġv al
pl ic
y t
Ġtim e
yp e
Ġe m
ion s
duc ed
] .
he n
ib le
Ġm ost
ac ter
olog y
ter n
p ar
Ġit s
ar g
Ġp e
o ugh
Ġ ra
Ġin s
ig ure
at ory
Ġim m
Ġe vidence
Ġon ly
a x
Ġre ported
Ġd o
o id
Ġint o
Ġt ri
Ġme as
Ġn um
t en
Ġde f
Ġcomp le
Ġ Î
l u
Ġob s
Ġt est
u es
enc y
Ġm in
an ts
Ġb ec
in ation
o k
ir st
a v
Ġres ults
c o
Ġthe re
Ġin dic
Ġmet h
in ding
i ver
â Ī
it ed
Ġo p
i tion
Ġs im
Ġb oth
i ly
Ġcon c
enti f
ĠA n
Ġ[ /
Ġn on
ra m
iti ve
Ġpro g
h ib
Ġper form
Ġinf orm
ti l
Ġ id
ation al
Ġpar tic
pt om
Ġgen e
Ġgen er
r ic
qu i
iti es
duc tion
Ġobs erv
Ġ J
Ġ end
Ġyear s
og en
Ġpres ent
r on
or d
Ġ if
ut e
Ġs er
C T
e k
uc t
Ġassoci ated
A T
Ġ âĢ
Ġs ec
Ġanal ysis
Ġs ome
Ġthe y
Ġex am
Ġre f
Ġre m
r y
Ġcomp ared
Ġdi agn
lo od
Ġne ed
Ġch ild
Ġs m
olog ical
Ġb i
ĠThe re
1 2
Ġf ound
vi ew
Ġf irst
Ġdifferen t
Ġan y
Ġf unction
Ġa v
Ġl oc
Ġd ose
ro ugh
Ġs ug
orm al
us t
Ġsy n
Ġh um
c r
Ġthe rapy
Ġg uid
ĠA s
Ġe ach
Ġsy m
o in
j ec
Ġmod el
ĠH owever
er m
Ġlevel s
iz ation
Ġde p
er g
Ġ es
Ġk n
o od
l ed
l es
ĠF or
it s
od y
Ġp ers
âĪ Ĵ
tic al
ac tion
Ġp ot
enti al
p tion
c es
ĠW e
Ġb lood
at ure
ar k
om en
i x
re l
ro p
Ġsug g
Ġ1 2
Ġeffec ts
Ġb l
op le
Ġoc cur
tr ib
Ġw ell
an ge
re ated
un t
Ġid entif
is e
Ġincre ased
ar t
Ġt r
it al
Ġad dition
Ġw ill
Ġ "
Ġl im
Ġcan cer
ur ren
ed i
Ġa ge
on t
Ġcon f
Ġre qui
un g
ak e
Ġinform ation
1 9
Ġp op
Ġh ig
Ġw ork
Ġinclud ing
Ġ2 01
Ġnum ber
Ġass ess
Ġp ol
Ġth rough
or t
ab ility
Ġexp ression
op h
Ġg l
il ar
cr ib
o b
Ġa p
Ġeffec t
Ġin di
Ġsym ptom
Ġac c
c ri
a f
in ed
Ġin hib
Ġwhe re
al e
Ġpe ople
Ġimm un
is m
ti t
% )
c op
Ġth ose
l ic
tic s
Ġim port
val u
Ġs o
in d
ĠC h
oc k
Ġm em
us ion
Ġex t
Ġpr im
Ġshow n
Ġmeth od
ti s
is tr
Ġe v
n ess
l is
Ġsur g
Ġmeas ure
Ġp ath
ent ly
1 1
o v
it te
Ġ j
g an
f t
Ġab out
C C
Ġm ic
Ġt um
f ul
ar m
Ġobserv ed
ple ment
s y
ra ph
at ely
itte e
Ġpos s
Ġm ain
Ġ .
iz e
re qu
Ġm ut
os ed
on se
ag es
Ġc ases
Ġpro b
n al
om a
Ġmon th
Ġad min
vi ous
ur ther
Ġl ong
5 0
uc le
Ġactiv ity
rec t
ec ted
Ġm ul
Ġwith in
a ir
el ine
ver se
Ġdis c
Ġl ik
Ġa ut
ven tion
y c
Ġindi vid
Ġc ould
Ġpro cess
ol d
Ġbec ause
ech n
ac c
om es
Ġb ased
Ġconsid ered
Ġwe ek
Ġinv ol
Ġhig her
Ġ2 0
I V
Ġconc entr
Ġcont ain
Ġav ail
os p
Ġres ult
et h
et y
ĠA d
i qu
Ġfollow ing
Ġy o
as m
ĠThe se
Ġcomm on
Ġac id
Ġh yp
Ġr ate
. .
i e
Ġw omen
Ġspec ific
Ġe valu
Ġchild ren
ve re
e x
u ally
Ġhum an
g n
âĢ Ļ
Ġperform ed
Ġb as
Ġth ree
ti vely
Ġd em
Ġp ost
Ġe p
Ġres pec
Ġo ur
ar ch
c ed
ac tions
urren t
2 0
Ġph ys
Ġf e
Ġs et
Ġimp ro
Ġc aus
ar ly
al ity
i od
it or
i an
in c
Ġstr uct
Ġw ould
al c
Ġinf ection
Ġch ar
ic ation
f er
Ġsim ilar
Ġanti b
ur al
Ġresp onse
r it
ot he
1 3
Ġsymptom s
th ough
er min
Ġdec re
Ġl ab
R NA
ĠU n
in s
C A
Ġd ue
Ġgroup s
os ph
Ġinclud e
as c
Ġt iss
F ig
Ġb en
Ġse qu
Ġf l
1 4
Ġincre ase
Ġimport ant
Ġfact ors
d u
1 5
er c
an e
Ġs ol
Ġpre vious
am m
Ġ <
on str
og raph
Ġavail able
v ir
Ġs k
Ġmonth s
Ġc ase
Ġre view
ad e
an n
ĠF igure
Ġsec ond
t ro
Ġpr ac
Ġcom b
ĠÂ ±
Ġin iti
Ġe ff
Ġsm all
Ġd os
Ġshow ed
is ed
Ġd ays
is ion
Ġle ad
ical ly
ĠT able
iv al
if e
Ġl ess
ati s
00 0
ul ated
Ġwith out
h y
Ġin j
Ġdevelop ment
ar di
Ġst and
ĠD NA
Ġt ype
crib ed
Ġt echn
Ġ1 5
Ġch ang
en ing
d ro
Ġv acc
v es
x im
iv ed
a z
Ġm or
Ġn ormal
Ġre se
u ff
Ġc le
Ġout c
Ġmul ti
os ure
ĠP ro
Ġne w
d ep
Ġpro t
in k
Ġp ub
Ġme an
Ġsam e
S A
ing le
tr ac
ul in
Ġmem b
Ġse ver
Ġp ain
Ġgro w
Ġcomp ar
Ġh ist
v ing
ar ge
ech an
Ġam ong
A A
ti g
arg et
ate g
ref ore
Ġm a
if ied
Ġ3 0
Ġchar acter
tain ed
Ġhy per
ĠA c
f ore
Ġpop ulation
Ġe lec
Ġa ffec
du ce
Ġt reated
Ġd el
Ġlow er
Ġe l
ĠE x
1 8
ĠC l
Ġc hem
os s
istr ation
ot her
Ġthe n
Ġper iod
Ġf requ
Ġ19 9
Ġbe fore
ac y
Ġad v
T T
1 6
Ġab s
Ġpar t
ĠH e
Ġkn own
age ment
Ġ Q
rom e
om y
2 5
Ġpot ential
ent al
Ġt es
Ġc alc
o res
ĠR e
iv en
end ent
Ġor gan
Ġd id
Ġt ak
ĠI m
Ġe qu
Ġs ingle
en g
am ily
le v
Ġpro ced
oin t
Ġexper im
Ġpl ace
our s
i or
ĠC D
C R
lis hed
Ġto tal
iss ion
i o
b o
Ġ ed
it her
Ġpro m
I I
Ġ â
Ġrecommend ed
Ġse vere
Ġra di
Ġs ens
Ġv ir
ro und
iti s
ĠH IV
Ġsignificant ly
Ġn ec
Ġn ucle
ĠI f
Ġcar di
Ġ Y
ĠT o
di tions
pl es
j or
Ġcl ass
or ding
Ġm echan
Ġdi ab
Ġs it
1 7
.. .,
at or
Ġt arget
o ve
Ġcomple x
Ġd om
jec ts
ens ion
ĠR es
Ġman y
Ġg ra
Ġloc al
Ġr at
Ġf inding
Ġt em
Ġdem onstr
om p
r al
g ative
D A
Ġdiagn osis
Ġposs ible
Ġd oc
in u
ro w
Ġm ice
Ġprotein s
Ġt ra
ur ation
Ġpre gn
ab ol
us s
us c
o ver
Ġ2 4
Ġprim ary
3 0
Ġcon ditions
Ġes tim
Ġpro duc
Ġhe l
ic k
anc y
I C
ros s
Ġv is
Ġchang es
Ġinclud ed
t y
Ġ## #
Ġsup port
Ġc urrent
G G
Ġt yp
Ġwh ile
Ġrespec tively
Ġhe m
Ġo x
h a
Ġstand ard
Ġm al
Ġrep res
asc ular
Ġweek s
w ay
ic es
G F
Ġgen es
Ġ1 4
ver s
Ġ1 00
Ġpos itive
osp ital
Ġma jor
E R
ti ce
Ġ1 8
Ġsur v
othe rapy
et es
Ġc yt
Ġsyn d
i ence
ag ing
y n
Ġb el
is ts
Ġg reat
o f
id ence
Ġben ef
I D
ĠP h
Ġmic ro
ĠP ati
Ġse lec
cri ption
Ġmed ical
Ġdis t
Ġne u
. [
Ġ5 0
Ġsurg ery
Ġb ody
Ġf urther
ress ed
Ġf ib
Ġtiss ue
at in
Ġlim ited
Ġex pl
ĠC omm
o le
Ġsugg es
Ġs us
Ġpro f
an y
ul l
Ġdes cribed
Ġtri als
enc es
2 2
Ġv ol
Ġmo lec
Ġro le
ĠC O
sy ch
Ġb re
Ġrese arch
ic s
i el
og n
Ġex c
Ġm y
Ġdet ermin
Ġrece pt
ar c
op er
Ġpers on
Ġ est
ce pt
Ġpre dic
Ġc ause
Ġcomm ittee
Ġs erv
ĠA m
Ġexp osure
ti f
0 5
Ġidentif ied
Ġe ither
âĢ ĳ
Ġv ery
Ġl ife
Ġ1 6
re g
Ġl arge
ron ic
Ġsynd rome
l ine
v ent
iv ing
Ġp ress
at ric
Ġf r
Â °
Ġconsid er
en e
Ġf ail
Ġinv es
Ġbe ing
Ġo l
Ġe arly
ĠF ig
Ġinves tig
ater ial
he l
Ġad verse
m on
Ġs af
and om
Ġg iven
at al
p ri
Ġman agement
p os
t o
n ing
s pec
A R
Ġm ark
Ġhe p
el f
um ab
ĠAl l
Ġpartic ular
plic ations
Ġrem ain
Ġmet abol
d om
Ġw ater
Ġpartic ip
2 4
c ent
rel ated
ific ation
Ġresp ons
Ġle ast
Ġsurv ival
Ġfact or
Ġy our
A C
Ġdi rect
Ġrel ated
Ġ1 3
Ġtri al
F igure
iel d
c on
Ġpres ence
Ġc ir
ĠÎ ¼
a e
Ġlik ely
Ġc ap
Ġval ues
am in
Ġst ate
Ġph osph
k g
Ġc ult
Ġwhe ther
âĢ Ŀ
l or
Ġag ain
Ġrecommend ations
Ġqu ality
Ġp ri
Ġof ten
am et
Ġsever al
se qu
Ġf ac
p ro
Ġl o
f ace
ĠE n
Ġinf lu
Ġd ay
Ġgener al
Ġre t
l ation
Ġ2 5
Ġ enc
ed ing
Ġp o
Ġdom ain
Ġappro pri
Ġeffec tive
Ġp at
Ġr andom
Ġsugg est
Ġdrug s
ĠO n
ro up
Ġpl asm
Ġ X
Ġgrow th
arm ac
Ġ ur
Ġre duced
Ġtum or
Ġl ine
Ġimpro ve
ĠA t
Ġm ight
Ġyo u
Ġsub jects
Ġrequi red
are n
ĠS c
Ġexam ple
ent er
dep endent
oc yt
st e
ĠâĢ ľ
R I
Ġdiab etes
2 3
ar ding
h ip
Ġwe ight
ut ed
Ġal low
Ġl oss
ĠR ec
in ce
ĠP re
Ġv i
Ġad d
lo b
A L
Ġr ates
Ġl iver
oc h
Ġde ath
ym ph
Ġprac tice
el ines
Ġint ra
Ġac ute
ĠC on
Ġ Z
Ġcon duc
Ġ u
z ym
v ity
Ġm ade
Ġc ost
Ġpress ure
u le
Ġfinding s
Ġhy dro
ul ations
ici ent
Ġdo es
Ġor al
E S
Ġprom ot
e u
ĠR NA
Ġreg ion
Ġcon tr
Ġan im
Ġad j
ir m
ros cop
ha vi
ran e
is h
Ġv it
l amm
y cl
Ġrepres ent
pec ted
ul es
Ġhel p
Ġat t
b ased
Ġm m
Ġmed ic
Ġindivid ual
w ard
Ġsc re
Ġprovid e
A P
Ġd a
em ia
Ġre port
Ġdifferen ces
Ġne gative
is on
ti es
a i
Ġsk in
Ġb inding
n er
Ġtest ing
Ġthe m
ĠN o
Ġcomm un
ter m
Ġt e
Ġev ents
Ġch ange
Ġs ize
Ġh ours
ĠAl though
Ġappropri ate
at us
2 1
Ġl es
Ġm ust
ĠM ed
ist ance
Ġch ronic
Ġgl uc
Ġtim es
d ay
Ġ ir
ĠPati ents
G T
A S
ane ous
Ġm at
Ġs tim
en ess
Ġp ur
4 0
b l
p ut
Ġadmin istration
ist ered
Ġdos es
Ġsign al
Ġmulti ple
ti al
ere st
Ġus ually
Ġar ter
Ġf our
Ġhe art
l ik
om ic
Ġe ven
op l
Ġl ymph
Ġst atis
Ġaut h
ol es
Ġoutc omes
2 7
2 8
t or
Ġh ospital
rit er
ver y
ore d
os tic
Ġinhib it
Ġl it
Ġest ab
Ġguid ance
2 6
Ġre nal
Ġr ange
is ms
Ġbe havi
ĠS up
Ġdes ign
Ġob tained
Ġ z
Ġt ub
Ġdis trib
m e
O N
u als
Ġprob le
Ġv ers
Ġcons ist
Ġreg arding
in f
i ous
iti vity
el s
Ġdifferen ce
ver age
ĠW h
Ġs ite
Ġ âĪĴ
Ã Ĺ
Ġinf ec
ic ity
Ġf em
Ġare a
Ġapp ear
Ġagain st
Ġcol lec
S C
Ġindic ated
A D
Ġval ue
u it
tic ally
Ġstruct ure
Ġse x
Ġm usc
Ġf amily
Ġ1 7
Ġda ily
Ġm en
k e
ĠHe alth
pl ant
Ġappro ach
c are
ter s
Ġch rom
Ġb rain
Ġqu es
Ġh owever
str uc
as ing
Ġconcentr ation
Ġof f
Ġaddition al
Ġk e
Ġacc ording
ial ly
tiv eness
xim ately
ĠU se
âĢ ²
Ġ1 1
Ġpri or
er ic
Ġinj ur
Â ±
m it
ur n
Ġb acter
ens ity
ĠD rug
m ission
2 9
Ġac tive
Ġreg im
z ed
ati vely
Ġassess ment
ĠS e
Ġnot ed
Ġcir c
Ġsam ples
Ġp hen
ro ph
Ġcon dition
Ġser um
I N
= =
Ġgreat er
Ġpre vent
Ġc er
or der
om et
Ġf lu
Ġsur face
Ġd ys
Ġc a
Ġde g
eng th
Ġspec ies
Ġanal ys
Ġs ide
Ġc riter
f act
Ġco un
Ġm ass
M P
Ġplace bo
Ġp sych
Ġr ati
ĠD i
% ,
Ġre duction
Ġac cess
Ġs uc
Ġtechn iqu
Ġprevious ly
Ġcomb ination
Ġcon trib
se e
Ġb one
Ġto x
Ġen zym
ain ed
Ġinvol ved
Ġmeasure d
Ġconf irm
n ot
) ;
Ġmethod s
iver s
um e
ĠW hen
Ġre actions
r ing
u ment
Ġ4 0
Ġad ults
Ġab ove
Ġindivid uals
Ġo per
Ġstr ong
it ation
Ġdisc uss
Ġins ulin
Ġ ill
h ol
Ġco unt
anc ed
Ġp ul
anc es
ce p
Ġanal y
Ġcharacter is
Ġ âĢĵ
eren ce
A G
Ġc all
vir on
Ġ her
Ġt er
Ġres id
Ġinc idence
Ġ ul
Ġdiff ic
Ġprovid ed
ic acy
Ġdep end
u k
tal ity
op ath
Ġprog ram
n ormal
Ġh ow
Ġdevelop ed
Ġthe rap
Ġguid elines
Ġconcentr ations
ib ility
ous e
ĠC T
Ġpro l
pl ied
erg y
Ġnec ess
ri al
ograph y
Ġpro per
6 0
Ġle ft
Ġt rain
S T
Ġproced ure
am p
our ce
on al
Ġa ir
edi atric
Ġrecept or
ĠD is
Ġrequi re
Ġtem per
oc ial
im um
j ect
Ġdemonstr ated
Ġ +
es is
g o
l er
Ġh and
Ġsh ort
Ġvari ous
oper ative
3 5
8 0
Ġover all
Ġfail ure
Ġcomp on
Ġhist ory
Ġf il
or atory
ĠSt ud
Ġis ol
9 5
Ġsam ple
Ġbre ast
3 4
Ġcont inu
Ġ >
ti de
Ġplasm a
Ġac h
lud ed
Ġpat tern
g r
ĠI I
Ġor ig
o y
ut es
Ġr ight
x t
2 00
ĠO ther
ĠComm ittee
Ġm aterial
E N
Ġan g
Ġl ip
ti d
Ġreg ul
ĠI V
plic ation
i ent
Ġtes ts
as is
Ġfollow ed
Ġpub lic
hes is
od e
ĠA fter
Ġbl ock
ord ers
Ġmor tality
ab ly
lik e
res p
Ġph ase
ĠD os
Ġthe refore
Ġyo ung
t he
E T
Ġsequ ence
R T
Ġdi rec
Ġach ie
Ġrece ived
s et
Ġvir us
k n
plement ary
Ġse en
Ġor der
Ġre ve
Ġc he
Ġf ood
i er
Ġadmin istered
Ġphys ical
Ġcriter ia
ici ency
u tions
Ġl ack
ol ution
Ġset ting
Ġmemb rane
Ġst ress
Ġm ax
itor ing
Ġb ack
Ġac t
Ġl ung
Ġgluc ose
por ts
Ġst atus
id es
od ies
Ġvacc ine
3 6
Ġam o
le t
Ġmusc le
Ġl ater
at ors
l d
um m
Ġdetermin ed
ĠA T
p re
ar s
on ic
w are
ĠC I
Ġdecre ased
er ation
Ġf low
ri es
er ate
al ed
ess ion
l ing
ab il
Ġappro ximately
Ġcult ure
Ġinf lamm
ĠE R
st and
Ġsit es
Ġconduc ted
Ġiniti al
Ġem b
ab les
ĠP r
Ġcontain ing
Ġf ew
ow led
Ġsub st
viron ment
Ġl ight
S S
end ed
ol s
c in
am ine
os ter
Ġres istance
our ces
Ġactiv ation
Ġdef ined
Ġserv ices
Ġelec tr
Ġdise ases
Ġre duce
ir atory
Ġstr ateg
ĠThe refore
Ġal though
Ġe very
ĠCl inical
Ġneed ed
c ell
Ġed uc
ens ive
Ġcaus ed
Ġinter vention
Ġeff icacy
1 00
m un
Ġhe ad
3 7
H O
Ġrel ations
Ġ \
Ġ er
Ġpresent ed
w ays
Ġcle ar
Ġs l
ak ing
Ġre ad
le ase
E M
Ġâ ī
3 8
ont rol
Ġcontr ast
Ġref er
Ġde v
al ysis
Ġare as
Ġ201 0
Ġph armac
al es
ĠF urther
Ġto p
Ġen h
C D
Ġsaf ety
Ġm it
s tit
Ġqu an
a w
Ġtyp es
Ġspec ial
ĠC o
in ary
ap s
co hol
ran d
ĠO ver
Ġim aging
Ġpro p
Ġsurg ical
r h
I n
Ġst rain
Ġf oc
ub le
f or
ra y
am e
Ġpre val
Ġidentif y
Ġtrans cription
Ġl arg
Ġform ation
ti b
entr al
ul f
Ġanalys es
) :
Ġ6 0
ab el
Ġd own
ati tis
Ġsup p
Ġe y
Ġre action
Ġse par
Ġ200 9
Ġcom plications
Ġ rap
Ġre duc
ĠAs s
olog ic
m an
Ġpar amet
Ġbas eline
Ġp oint
Ġrati o
Ġpos ition
Ġre lev
Ġpregn ancy
Ġs elf
it ing
Ġ i
ut ri
Ġdifferen ti
Ġs w
Ġscre ening
Ġexper ience
Ġab normal
Ġsol ution
4 5
S up
ĠThe y
til l
ro id
Ġt able
7 0
Ġimp act
m a
s c
as k
Ġrelations hip
Ġexp ressed
Ġe th
Ġc ent
at ures
or b
3 3
pec ially
in t
Ġtemper ature
Î ±
erm ine
m edi
os cop
Ġst age
Ġs al
Ġdis orders
Ġre as
l and
Ġc at
air ment
Ġcor rel
I P
en z
Ġ9 5
Ġal tern
Ġshow s
Ġmed ication
Ġs ection
Ġv s
l ess
Ġtak en
Ġsup er
Ġd uration
Ġint erest
ĠF DA
Ġcer tain
R E
Ġinjur y
Ġlab el
Ġdet ermine
ter ior
Ġdiffic ult
T able
mon ary
le x
G C
Ġpro duction
Ġg ly
Ġrep e
ir d
ocyt es
Ġs uff
Ġinfec tions
ok ing
Ġa verage
Ġexperim ents
Ġrec ent
Ġrel ative
Ġfrequ ency
Ġgene tic
ot ype
ĠR ef
Ġth ough
Ġbel ow
m ia
ĠDos age
Ġdet ail
Ġinter action
t ure
ix ed
00 1
ĠO R
ro gen
ĠI L
Î ²
Ġc ur
Ġnecess ary
ĠO ne
Ġrec ogn
ac tiv
Ġd er
oc y
Ġl ink
Ġv er
Ġcardi ac
Ġt reat
y ear
Ġsuc cess
a ff
ing s
ve ment
Ġem erg
Ġc ri
ĠÎ ²
Ġf ield
s er
Ġen vironment
Ġrecommend ation
em ic
ĠA b
ĠC om
ar b
spec ific
Ġdistrib ution
Ġdecre ase
tion al
te gr
Ġincre asing
Ġ ve
Ġne ur
Ġeffec tiveness
Ġd am
ĠL e
r ation
ur s
Ġsc ore
Ġan other
oc ardi
Ġm i
as tic
Ġdet ected
Ġth us
Ġestab lished
Ġsystem s
Ġvol ume
Ġrap id
3 2
Ġst ar
ĠÂ µ
tr ic
re ad
I ON
ĠS T
Ġw or
ĠTh us
Ġevalu ation
Ġassoci ation
ir th
Ġc r
on es
Ġes pecially
Ġb le
Ġcharacteris tics
Ġmodel s
Ġs till
Ġh om
Ġpub lished
Ġper cent
ven tions
Ġs ch
ĠA N
Ġad ult
w ork
Ġs ince
Ġ200 7
Ġcomp any
S P
Ġ ÃĹ
out h
Ġcaus es
g es
til ity
Ġhigh ly
b r
y r
Ġtak ing
form ation
od ium
ur g
Ġrece iving
Ġcar b
Ġg o
y gen
7 5
Ġ200 8
ĠB ec
Ġal one
Ġevalu ated
Ġp aren
Ġdis order
Ġparticip ants
ĠI C
Ġag ents
Ġtrain ing
Ġac co
Ġguid eline
Ġsecond ary
t reated
Ġpreval ence
Ġcar cin
Ġoutc ome
Ġrec ord
Ġlik e
Ġf ull
ag ed
Ġcomple te
Ġbet ter
de x
Ġles ions
o tic
Ġl ength
Ġfunction al
ph yl
Ġelec tro
er ve
rom b
Ġmet ast
Ġ2 8
Ġv ia
yc in
om al
ell ular
Ġe le
Ġen ergy
Ġref lec
Ġb est
Ġsens itivity
g et
Ġhyp ot
Ġwhere as
Ġcon cer
t ype
enc ed
e qu
Ġass ay
od es
in duced
B S
Ġregim en
en se
Ġantib ody
a pp
Ġs ocial
M I
Ġre d
O R
9 0
e tic
Ġpers ons
u fact
Ġm ake
Ġsugges ted
ri ed
Ġt ake
ĠD e
Ġun til
os ome
Ġresp iratory
Ġ ,
Ġra re
oid s
Ġrat s
ac tive
Ġdi et
ĠA r
ĠâĢ ĺ
3 1
Ġsub sequ
C l
Ġdiagn ostic
cl usion
n s
Ġdel iver
Ġac ross
Ġresult ing
ress ive
Ġreg ions
ne um
Ġincre ases
Ġchem otherapy
Ġindic ate
Ġb ase
Ġfac il
entr ic
Ġc ycl
Ġcontrol led
Ġf at
Ġha ving
Ġpath way
Ġprog ression
Ġdoc tor
Ġcall ed
Ġrelev ant
Ġop en
Ġabs ence
us tr
ĠS ome
oin ts
oc c
ne y
Ġm M
Ġsur ve
Ġg as
ĠM e
Ġaffec t
ra g
Ġn et
Ġrem o
Ġm uch
ly ing
Ġ '
Ġis s
Ġc os
Ġh al
3 9
M S
Ġac cur
Ġch o
Ġprof ession
our se
Ġques tion
E P
is ing
Ġanim als
ĠM ore
ĠBec ause
Ġparticular ly
Ġfoc us
H S
in ant
T R
owled ge
Ġauth ors
Ġpro por
4 4
Ġproced ures
Ġmolec ular
ogen esis
Ġg ood
y roid
Ġf ree
Ġm id
am ic
Ġvers us
Ġmut ations
Ġgener ally
O S
Ġpop ulations
Ġs umm
eu tic
Ġinj ection
Ġav oid
Ġmemb ers
Ġinter ventions
he re
Ġman ufact
g round
Ġst ep
p s
in a
pl oy
Ġantib io
h ing
Ġm ac
6 5
Ġe lev
Ġp ow
Ġim plement
Ġcompar ison
Ġ201 1
Ġbenef it
h old
or ph
Ġ ess
ov ascular
p ir
Ġlit er
ivers ity
Ġex trac
ol ar
Ġmeas ures
Ġreve aled
Ġ200 6
Ġcor resp
ac ed
c ence
Ġmon itoring
ĠC a
Ġpo or
Ġvis ual
Ġex erc
Ġconsist ent
par t
Ġimm edi
ra d
Ġh is
ogen ic
ĠIn t
Ġassess ed
ici ans
us e
t le
Ġlab oratory
Ġpl us
Ġpre c
Ġp a
ĠS h
Ġab ility
Ġinc ub
Ġpregn ant
a ve
i ological
Ġass um
Ġexam ination
Ġke y
Ġoccur s
Ġunder stand
pl ace
o ol
Ġep id
tr ans
Ġar tic
Ġre st
ĠC A
Ġc ross
E C
ĠIn c
Ġin dependent
Ġap plied
Ġmechan ism
Ġ ens
Ġa min
er ing
N P
ĠG en
ĠC ons
Ġvit ro
im al
Ġdef in
cri pt
ut ure
ven ous
Ġvi ew
Ġpol ym
Ġcan not
Ġex ist
Ġex pected
Ġpro duced
ĠAm eric
Ġd on
B P
Ġa round
an k
Ġtreatment s
eth yl
m b
ĠP l
Ġcont act
Ġfl uid
Ġanaly zed
Ġbas is
Ġproble ms
est inal
Ġpre vention
c k
Ġimmun e
Ġal cohol
Ġp an
N F
Ġval id
4 8
ĠN ational
yc le
Ġhum ans
is ted
Ġlong er
Ġproduc ts
Ġcount ries
iz ing
ĠN ot
Ġaffec ted
tain ing
Ġoc c
am il
ok ine
Ġarter y
ul ate
Ġop tim
m l
ari ly
Ġm ale
Ġph ot
Ġm RNA
Ġ q
C V
Ġcont ent
Ġb irth
Ġt erm
er al
ĠW ith
Ġhyper t
Ġsit u
Ġhealth y
m ore
Ġdirect ly
y st
Ġc ateg
ĠN on
Ġ3 5
ear ch
Ġin tegr
ĠG uid
Ġmod erate
Ġconfirm ed
Ġre ports
Ġcalc ulated
Ġcomp ound
ot yp
ĠS p
ros is
Ġcommun ity
Ġe ar
Ġc m
ress ing
Ġpul monary
Ġimp airment
on ia
Ġk id
Ġestim ated
Ġinhibit ors
ra w
Ġantib odies
ĠD ata
P D
Ġcl in
Ġexper i
or n
Ġf ive
Ġp ep
Ġ3 7
Ġmanufact ure
Ġsyn t
Ġox ygen
et al
Ġsign s
ĠG roup
V ID
Ġamo unt
Ġtes ted
Ġoccur red
ri tis
ren ce
Ġter ms
et ing
Ġim ages
Ġp neum
Ġk in
re am
le ep
av ir
4 7
ĠA C
A N
m ic
Ġa x
ol ic
Ġ2 6
Ġenzym e
unc tions
Ġbenef its
Ġdet ect
ont inu
Ġtrans fer
it es
Ġ x
Ġ4 8
Ġrandom ized
4 6
Ġol der
% ),
Ġparamet ers
Ġfe atures
Ġble eding
Ġbehavi or
S D
Ġ200 5
Ġcol l
Ġw id
Ġne ut
Ġup on
Ġâī ¥
Ġbec ome
Ġneu ro
Ġwh at
Ġd one
end er
Ġc entral
r in
4 9
Ġ *
Ġev ent
ens us
g in
Ġ2 1
Ġdam age
Ġsequ ences
Ġrat her
ĠC ol
ĠU SA
ren g
ut aneous
Ġlim it
Ġd im
d en
Ġl ines
Ġhep atic
Ġcommon ly
Ġdirec tion
IC E
Ġun c
ac he
ĠT B
Ġac tion
] ,
Ġal ong
em s
as h
Ġperform ance
Ġhealth care
Ġsec re
Ġmut ation
Ġdis s
ĠÎ ±
G A
Ġse e
Ġinhib itor
cl us
rol og
P C
Ġinter actions
Ġliter ature
ĠT reatment
on ding
ax is
b ers
Ġme ans
ot s
Ġin duced
ast ro
i ology
Ġc ourse
5 5
ra ms
Ġtum ors
Ġdec ision
Ġtrans plant
is tic
Ġc ere
Ġneed s
ĠIn ter
Ġpot enti
ĠI g
Ġuse ful
och ond
Ġmechan isms
Ġin dex
Ġs ource
Ġrespons es
Ġdoc ument
r up
f unction
re m
ay ed
Ġmed ium
Ġactiv ities
Ġprot oc
b e
oc occ
Ġsignal ing
Ġso ft
Ġser ies
ain ing
Ġon ce
Ġsystem atic
Ġo ste
Ġch ann
Ġtherap eutic
ell ing
6 7
d ose
tr as
Ġim age
5 3
g roup
Ġcontrol s
Ġpro st
ist ant
Ġser ious
Ġ19 8
Ġphosph ory
ĠN e
ĠRec ommend
4 2
Ġresp ond
ĠA D
Ġtrans f
Ġstruct ures
dom inal
Ġfr act
T he
ĠT w
oph il
Ġins er
u rop
) (
D S
Ġfem ale
Ġnet work
Ġhe ter
Ġd at
Ġb o
ĠUn ited
M A
kn own
Ġdeliver y
Ġselec ted
Ġab le
Ġtiss ues
Ġin d
ĠUn iversity
ĠS im
Ġ2 7
at ural
Ġsugges ts
Ġem ploy
ĠO ur
Ġrep ro
L C
Ġm ouse
oc hem
Ġhal f
Ġhe re
ack age
Ġd il
om as
Ġstatis tically
Ġchem ical
iv o
am ide
if y
ĠRes earch
Ġess ential
in ated
m L
ar row
Ġdet ection
Ġconc luded
od ing
Ġh orm
Ġmed i
ag en
Ġc ycle
ĠCO VID
Ġcontain s
anc er
Ġ2 9
cer tain
Ġs odium
e ffec
o h
Ġl ast
ill in
Ġcos ts
Ġs ix
ip her
ĠIn di
anc re
Ġcomb ined
oc al
Ġmax imum
ul a
og lob
Ġfor ms
r ate
r ine
Ġad equ
Ġox id
em a
Ġcri tical
ten tion
Ġreg ard
ater al
in ally
ure d
ud e
ac hes
ĠFurther more
Ġn utri
on ary
Ġsystem ic
Ġro ut
Ġup per
Ġtechniqu e
ograph ic
Ġstud ied
Ġint ro
m w
Ġrel atively
c s
Ġp ediatric
Ġcollec ted
Ġ2 2
Ġemb ry
id s
Ġmed ian
Ġmanufacture r
roscop ic
c i
Ġkn owledge
s p
out put
Ġth romb
ĠN ICE
Ġtrans mission
f old
Ġh ome
enz a
Ġintra venous
y stem
E D
Ġag ed
in ib
Ġw ild
ox ic
par ser
om b
ai red
' -
urop e
Ġm L
Ġprovid es
d is
T S
Ġaltern ative
az ole
Ġl ay
Ġb ar
Ġadd ed
Ġex tr
ran ge
Ġmet a
Ġv ivo
Ġc op
str ic
Ġp H
g l
Ġcompon ents
Ġcol on
ĠIn f
Ġstim ul
Ġrel i
f ree
ro ke
ym ptom
p ite
mit ted
Ġ9 0
ac ts
Ġ &
pec t
he st
enc ing
ĠO r
Ġcl us
Ġdo uble
P A
9 9
Ġw ay
re en
Ġac et
re ed
Ġm ild
ĠC omp
Ġmin utes
Ġbi ological
== =
Ġl ig
ph al
Ġ8 0
Ġpe ak
ĠP D
Ġreas on
Ġ enti
lor ide
er n
ar ning
Ġlead ing
Ġ= ===
it hel
Ġexp osed
Ġm ental
Ġanim al
Ġproduc t
d s
Ġhypert ension
te xt
Ġexam ined
R A
ic ial
Ġmeth yl
ar r
Ġpl ate
Ġco h
Ġb ro
ec tive
U S
ĠP C
ĠT r
Ġdep ression
pec tive
4 1
4 3
Ġimpro ved
b s
o z
6 8
Ġacco unt
Ġs leep
Â ®
Ġclinical ly
Ġd ig
ap a
Ġkid ney
% .
Ġdeg ree
Ġmal ign
cep tib
Ġcon n
j ection
r or
istr y
dition al
Ġinv as
Ġproper ties
ĠRe g
ĠE urope
s h
tern al
ĠSup plementary
Ġother s
. "
Ġpre p
opath y
u ter
F P
Ġexerc ise
ul ted
enc ies
Ġst op
Ġmit ochond
O D
I T
p ression
Ġcardi ovascular
Ġamin o
go ing
ot t
Ġs ter
Ġr ang
ĠI II
al k
Ġsever ity
h ood
ph a
and s
Ġeduc ation
tim e
m et
p r
C L
Ġ200 4
Ġmut ant
D NA
iz umab
o form
f ig
Ġn m
ici an
Ġprocess es
Ġpl ay
ac es
opl asm
Ġl at
Ġinclud es
Ġon set
Ġsub str
erg ic
Ġf inal
Ġc ry
ĠS ub
lud ing
R P
Ġpro duce
Ġb r
Ġv ascular
Ġmor ph
Ġv entric
C G
ect or
g ed
7 8
Ġcon st
Ġar m
Ġst reng
Ġtechniqu es
Ġn erve
Ġm es
Ġsubst an
ĠIm mun
Ġpropor tion
ĠC ell
Ġm el
ĠB i
is ation
Ġp en
ĠS pec
ĠIn stit
Ġprog n
Ġcell ular
ĠMed ical
Ġcorrel ation
Ġn it
ogen e
Ġe as
Ġg u
pos itive
ĠP ar
Ġey e
Ġimprove ment
Ġre lease
Ġto ward
ic ro
Ġmedic ations
ĠSt ates
Ġvacc ination
C s
A B
Ġto ler
Ġdevelop ing
Ġf unctions
em b
ĠM ost
Ġa im
il i
eth od
Ġcalc ium
Ġp ass
Ġflu ores
ĠP CR
Ġob es
Ġfrequ ently
Ġill ness
I S
Ġsc i
Ġsubsequ ent
Ġex hib
Ġprol if
Ġwe ak
Ġf und
Ġinhib ition
Ġro om
Ġcar ried
6 9
Ġo w
Ġth ird
ten ance
b ack
Ġc ogn
5 7
lis h
Ġinf ected
Ġmeasure ments
Ġshow ing
op ro
Ġacc um
Ġdiagn osed
Ġper ipher
get her
Ġto gether
Ġm uc
Ġ2 3
ra de
m ost
Ġens ure
Ġs he
os ition
t t
y tic
Ġexperim ental
Ġin trac
us ted
ec ts
Ġlo ad
jec ted
b le
Ġsc ores
P S
or ies
Ġle uk
D L
Ġb ind
Ġin st
Ġf amil
Ġdis co
b y
Ġpol y
T A
Ġwork ers
Ġre stric
w h
ib r
ot or
Ġp air
Ġp ancre
Ġsup ported
Ġproble m
am s
Ġâ Ĩ
hy dro
Ġan tic
ann ing
ĠWh ile
or rh
Ġw all
p ose
Ġisol ated
Ġinf ants
Ġbacter ia
Ġmolec ules
ĠS ec
Ġp oints
op t
Ġdis pl
erv ed
Ġdisc ontinu
tim es
Ġmajor ity
Ġst rand
w w
end ing
Ġcont in
Ġn urs
Ġloc ated
I L
Ġ7 0
Ġdist inc
Ġsetting s
Ġinter nal
Ġcons um
Ġch all
Ġsuggest ing
Ġres ulted
ment al
dic ations
Ġrep air
v is
ch ing
ĠH y
Ġst aff
Ġinter pre
Ġen g
Ġad oles
at s
c ontrol
Ġan a
Y P
Ġlarg er
ĠD es
if est
Ġs low
Ġmetabol ic
Ġtox icity
Ġ4 5
ĠC H
pl ate
Ġvari ables
ter min
Ġremain s
Ġcons ensus
Ġsuccess ful
b ral
Ġprop osed
Ġf uture
r s
Ġrecept ors
Ġbi op
s or
ĠO ff
Ġb uff
Ġadv anced
Ġinflu enza
id ity
Ġm agn
Ġd ensity
Ġcor onary
Ġinflamm atory
Ġf rag
ĠP er
requ ency
hy d
Ġrec ently
ater nal
Ġrec urren
im er
Ġsex ual
Ġnum bers
Ġradi ation
Ġcon sequ
i tions
al ing
C S
Ġre al
Ġf er
iz es
Ġinter val
5 6
Ġn an
ĠO f
Ġcurrent ly
Ġch ain
Ġp or
ar ing
Ġin duction
Ġm ig
ar ies
et s
ĠT rans
oci ated
Ġwor ld
Ġgen ome
Ġcap ac
% ).
ĠM D
Ġm il
Ġauth or
I F
Ġstrain s
os omal
Ġun certain
c hem
Ġv ary
ĠÂ £
P V
2 01
7 6
Ġrece ive
Ġcarcin oma
Ġvir al
Ġv en
Ġle g
Ġst em
Ġse g
ĠH ist
Ġs il
as al
Ġcharacter ized
L abel
ĠC an
Ġt end
N S
Ġa ware
Ġ3 6
Ġcarb on
Ġref erence
Ġinflu ence
Ġac cept
ĠRes ults
Ġbacter ial
Ġin tr
ect omy
' ,
ĠU K
Ġag g
Ġrequi res
Ġpre par
Ġnucle ar
ĠF amily
if ically
âĢ Ķ
est hes
ĠS ch
Ġang i
Ġst roke
Ġsc ale
Ġ201 2
ocy te
Ġn ow
ĠD o
ĠH B
) -
ĠA pp
ĠM RI
Ġdev ice
Ġachie ved
Ġreg ulation
Ġcompon ent
Ġstrateg ies
Ġrisk s
ra z
Ġwh ite
Ġpre f
Ġm ill
ĠM on
Ġg astro
Ġtr act
Ġag reed
Ġam pl
Ġpre fer
Ġ200 3
Ġab dominal
Ġder ived
Ġsus ceptib
ary n
Ġn am
Ġv ess
Ġimport ance
Ġcontinu ous
M R
ab or
Ġdi vid
Ġs ulf
Ġwho le
ĠS ince
Ġmain tenance
Ġpow er
b re
ĠAN D
Ġdes crib
Ġad en
Ġacid s
Ġcat he
Ġth ick
Ġf ever
om er
Ġm ix
Ġep ithel
Ġreg ular
ĠA g
ĠAc c
ti ally
ĠA L
Ġindic ates
Ġdys function
Ġres ources
Ġal le
Ġmeasure ment
Ġselec tion
place ment
Ġkin ase
Ġ200 0
Ġrec over
Ġhep atitis
Ġul tras
Ġsup plement
Ġt ask
Ġcon text
7 7
ĠD uring
p ati
or tic
um b
Ġelev ated
Ġst able
ĠI s
ĠN ew
n o
Ġto ol
Ġun known
Ġcorresp onding
s ide
as ts
ag ne
M D
Ġmic roscop
ĠTw o
Ġrespons ible
Ġm other
Ġm aking
ĠAmeric an
Ġgener ated
Ġsignific ance
ist ent
Ġpl an
ob l
ag on
tid es
ill s
Ġhig hest
Ġm l
Ġex cess
Ġpl ant
z e
Ġa ff
ac hed
Ġcoh ort
es tern
Ġperipher al
Ġpath ways
is ter
U C
ĠER G
ĠP O
ĠW HO
it ant
te x
c ers
Ġint ensity
I R
Ġgly c
Ġo v
an ol
Ġpro te
Ġexperim ent
oles ter
ĠD ep
Ġrespec t
vention al
c t
Ġspec im
os in
Ġtra um
6 6
Ġinflamm ation
Ġinf usion
Ġles ion
Ġn atural
Ġstatis tical
Ġfacil it
Ġquan tit
ĠE ffec
ĠÎ¼ m
Ġst ates
as ia
Ġ7 5
Ġc ut
i i
Ġl ate
Ġsp e
9 8
Ġb ur
t on
Ġst e
Ġprol ong
o u
ĠS P
r m
Ġpr inc
Ġl apa
Ġ3 8
Ġappro ved
Ġd yn
iv es
ra di
Ġcl os
Ġpattern s
Ġcirc um
ĠS er
a qu
Ġst aining
ph osph
jec tive
ren t
Ġl og
Ġsl ight
el ing
Ġg lob
min istration
Ġrecurren ce
Ġpan el
Ġunder lying
ĠMore over
Ġis oform
ethod s
Ġsus pected
ĠStud y
5 8
ac in
Ġevalu ate
ul ating
os omes
Sup ported
Ġemerg ency
Ġneur ons
Ġmetabol ism
ĠU s
Ġb ound
Ġmedic ine
r ich
Ġag ent
Ġstreng th
Ġappear s
Ġimmedi ately
ro c
Ġn erv
Ġmy ocardi
E L
um in
n ers
âĢ² -
plic ated
ĠDi agn
ve red
Ġsm oking
Ġdifferenti ation
ell ow
ĠStud ies
phyl axis
Ġsynt hesis
erv ical
Ġpercent age
Ġsub un
Ġcl ose
Ġlead s
Ġtechn ology
Ġphosphory lation
entif ic
M T
Ġdesign ed
Ġpol ic
Ġf it
Ġg ran
Ġcons ult
Ġstrateg y
Ġint ake
ati ves
Ġt ermin
Ġpotenti ally
Ġadequ ate
Ġ ent
ĠG ene
Ġtw ice
Ġtr ig
Ġpromot er
Ġincub ated
Ġs pl
9 6
b or
t ered
e ff
RNA s
Ġstim ulation
v ision
id ine
Ġques tions
Ġdat ab
e g
ĠSim ilar
o ot
or por
Ġstruct ural
th al
Ġsuff icient
ĠN O
Ġdiscuss ed
Ġestim ates
igh ts
t ake
ogen ous
Ġanti gen
Ġel im
x i
ol low
Ġm amm
Ġprovid ing
ĠN HS
u v
Ġ200 2
Ġ enter
I G
Ġwh ose
Ġdomain s
. )
Ġvit amin
Ġf ul
Ġdos age
ĠM an
Ġinvestig ated
ce ption
Ġstud ents
Ġsp ace
oci ety
k in
Ġpl aced
5 9
ap an
Ġun its
un ts
ot al
Ġcapac ity
7 9
Ġr ib
Ġtyp ically
ĠEn g
ell a
int estinal
Ġal ter
Ġ ion
ĠEx per
ĠA R
ĠC YP
Ġbet a
Ġext ent
ĠM et
Ġn ature
Ġrec r
ass ociated
Ġorig inal
Ġbuff er
ĠMed ic
ĠN a
en ia
Ġpredic ted
opt osis
re t
aren t
Ġap plication
ĠOver view
y g
Ġdef iciency
c om
ĠE ach
Ġcogn itive
Ġremo ved
o ff
b ial
Ġc enter
Ġ5 00
Ġpneum onia
esthes ia
Ġchrom osome
7 3
res hold
T C
Ġfr action
Ġwork ing
Ġc reat
he a
Ġw a
Ġche ck
ĠK ore
Ġur ine
Ġche st
u z
Ġd ri
Ġe con
ur b
ĠS tr
se mb
a pt
Ġn or
ĠU S
Ġhem at
Ġindic ating
Ġf ram
a u
Ġc atal
erc ul
Ġreduc ing
Ġmin im
Ġal g
Ġtrans port
GF R
s on
Ġre qu
8 8
Ġenti re
ĠS ystem
c utaneous
Ġcor tic
Ġmal es
is es
os a
d le
Ġprep ared
in ations
Ġcon j
ĠP P
medi ated
cri p
Ġin duc
Ġpl ants
Ġear l
Ġan terior
Ġprog rams
ron ch
Ġse arch
Ġadj ust
Ġvari able
or al
Ġsub group
ap se
Ġappro aches
0 2
Ġl ist
od ed
ari an
Ġmi R
Ġprovid ers
ĠB l
in ess
Ġwid ely
olester ol
O L
um p
ad der
Ġag ree
her s
Ġestim ate
R S
ri x
ĠIn formation
ĠS D
Ġprotoc ol
Ġsim ple
hy th
Ġexper ts
Ġbro ad
ĠB oth
- -
o tide
ĠE p
ap e
Ġthrough out
ro g
Ġiss ues
Ġun it
Ġne xt
ov ir
agne tic
vers ion
ti ous
Ġthough t
5 1
Ġins tit
ody n
inf ected
6 3
Ġlip id
Ġd r
othe l
y le
ĠAT P
Ġunderstand ing
Ġcompound s
Ġt it
an alysis
c hed
h al
r ight
Ġabnormal ities
ĠM y
st ream
Ġend oscop
oci ation
oc ation
ĠM S
der ly
Ġob struc
Ġb u
Ġc al
Ġdetail s
ĠE vidence
N T
Ġup d
Ġt urn
iqu e
ĠPh armac
Ġb al
iff eren
ĠJ apan
i pp
n ai
ĠR ep
Ġw ound
Ġrecord ed
Ġtrans l
H C
res t
m ark
Ġ3 2
ĠP ost
Ġrepe ated
Ġan t
Ġartic le
Ġar th
H D
ol ved
Ġprolif eration
Ġrout ine
Ġf ast
Ġtable ts
if t
Ġhe at
Ġspec t
Ġatt em
Ġu til
Ġinvol vement
Ġv enti
ox ide
6 2
i vely
Ġl iving
Ġrefer red
Ġdistinc t
Ġ ide
Ġm is
Ġde le
ĠH CV
Ġclass ified
ĠA P
um an
ĠAcc ording
ul s
Ġc ore
Ġap optosis
al ian
Ġloc ation
Ġprovid er
Ġlit tle
Ġth yroid
Ġvari ety
re p
ĠM od
Ġm iss
Ġh ost
Ġth reshold
oph ag
ĠN or
6 4
ti tion
Ġcon struc
Ġcry st
L A
or ith
i re
t ation
7 4
Ġal most
Ġb il
Ġposs ibility
Ġsub ject
Ġmark ers
Ġmain ly
ex p
Ġfem ales
Ġ6 5
0 3
ĠD ise
Ġn orm
ĠM A
Ġexperi enced
Ġgra de
/ âĪĴ
Ġm aternal
ival ent
C h
or ing
ly ce
ĠDis c
t a
om an
Ġorig in
qui red
V A
read y
ochem ical
Ġcon trac
Ġ200 1
7 2
ĠP T
Ġrecover y
Ġf ind
Ġsome times
Ġele ments
Ġw ar
se ud
Ġcon ventional
ĠâĢ Ķ
Ġbel ie
ĠCan ad
P CR
ik i
7 1
Ġpost operative
Ġf av
Ġf ace
el i
Ġex ternal
ex t
Ġcho ice
Ġb reat
8 5
ĠF ollow
Ġf ixed
Ġdec l
Ġs uit
* *
im e
Ġdi amet
GF P
g i
im mun
ĠP A
Ġtem por
ĠR T
Ġins uff
Ġspecific ity
Ġvari ation
Ġspec ifically
Ġy et
Ġst art
Ġse iz
Ġresid ues
Ġcontrib ute
c hes
Ġl ed
Ġres ection
ac et
Ġinvol ving
Ġventric ular
ro t
op e
Ġal ready
m m
Ġmain tain
Ġs ources
as ter
8 9
Ġ3 3
Ġmed ia
Ġas k
Ġconf idence
Ġur inary
Ġ ery
Ġ %
Ġreview ed
Ġful ly
r isk
d ef
ill ary
ia z
Ġbiop sy
pati ent
Ġk g
us ed
Ġal ways
Ġexc luded
ĠS m
Î Ķ
Ġidentif ication
Ġow n
ac tic
Ġantibio tics
Ġno vel
Ġhorm one
C M
Ġass ays
ĠS ever
Ġadv ant
en ed
Ġmaterial s
he rence
Ġw ide
Ġprim arily
ĠPh ys
Ġspec tr
5 4
w ise
Ġir on
ĠÎ¼ g
H A
n ia
inc luding
ĠA f
Ġ /
xi ety
Ġp ast
Ġat trib
Ġep is
Ġtreat ing
Ġg ain
Ġb ox
Ġn ame
Ġc ervical
ĠC R
Ġquan tif
Ġprof ile
Ġf etal
Ġp al
C P
Ġl ys
Ġrepres ents
Ġdivid ed
c ents
Ġocc up
Ġf in
Ġel derly
} .
Ġmel an
ĠWh at
F A
5 2
Ġv ag
ĠD r
c al
or ption
Ġcons tit
6 1
Ġdep endent
Ġstrong ly
Ġpa per
Ġw rit
ercul osis
r ant
a h
lo x
Ġsurve y
Ġtum our
Ġsam pl
Ġn ational
Ã ©
Ġsch ool
ĠB e
Ġcathe ter
ĠInt erest
Ġb ran
ĠM any
ĠAm ong
ĠPre gn
Ġg el
uc tion
Ġoptim al
C O
ĠSt atis
ox id
ti le
Ġallow s
Ġcortic oster
ak es
Ġenzym es
Ġalg orith
Ġfrequ ent
in ity
ĠB ased
igh ted
f e
Ġtub e
ĠPati ent
Ġdepend ing
ĠGuid eline
Ġsens itive
Ġa di
is hed
Ġha z
it one
termin al
Ġcare ful
olog ies
Ġs i
Ġneu rolog
o e
Ġm otor
Ġim plant
il s
B D
E G
" .
Ġsc an
Ġop tions
Ġt et
duc tive
Ġprofession al
Ġpolym er
Ġp ut
erc ial
we ek
ign ed
over n
Ġdiab etic
ĠC P
ĠInstit ute
e F
Ġcor rec
Ġpredic t
Ġin str
Ġy ield
Ġfract ure
Ġext rem
hen s
ĠC S
tiv ity
Ġmil k
b inding
ic illin
ĠC or
Ġlater al
Ġiniti ation
Ġform ed
Ġsoft ware
ip ment
Ġhaz ard
Ġphys ician
Ġcle arly
Ġconf lic
Ġst ages
Ġpro xim
ĠC ancer
AL Y
Ġd ate
ĠM aterial
Ġdemonstr ate
Ġearl ier
Ġmark ed
Ġis chem
Ġrec omb
Ġol d
ir ing
v it
er ous
Ġhep at
Ġtransplant ation
Ġantibio tic
Ġin duce
Ġn g
Ġactiv ated
otyp es
Ġexpl ain
Ġtox ic
Ġcom pl
t ely
ur ia
Ġsaf e
he tic
Ġg ender
Ġbi om
Ġprot ection
Ġaccur acy
ĠM R
Ġsp inal
0 4
Ġs qu
am ics
Ġenvironment al
Ġclus ter
ar ia
Ġenh ance
Ġm ixed
Ġor th
Ġdist ance
Ġgas tric
Ġmitochond rial
Ġf ar
Ġad hes
Ġinter n
Ġj oint
R out
Ġne ar
D oc
Ġop tion
Ġpromot e
ĠW iki
Ġpos terior
Ġback ground
er red
Ġobes ity
ĠM ethods
av es
Ġcap s
Ġreg ression
Ġcomple ment
Ġcor rect
ĠÂ °
Ġequ al
ĠAss ess
Ġdeg rad
D uration
ĠG l
Ġsh or
Ġre ach
Ġas pir
Ġdos ing
Ġas th
w ide
Ġ3 4
ĠDosage Rout
requency Duration
eF requencyDuration
ĠDosageRout eFrequencyDuration
ĠF irst
ĠP M
Ġne on
Ġcollec tion
oc l
or ts
Ġinter act
ed s
Ġnec k
Ġfib ro
Ġan n
it us
ĠW T
ste ad
Ġreflec t
Ġdef ects
Ġobserv ation
ĠP ol
ĠH ep
ens itivity
br id
d own
Ġinc orpor
Ġsubstr ate
ar in
Ġev olution
Ġm us
ĠIn tern
Ġtherap ies
Ġco ord
d es
it als
Ġmo tif
Ġdiscuss ion
Ġclear ance
ĠAl so
Ġle arning
E F
Ġbi as
Ġ3 1
Ġprofession als
Ġ3 9
or age
in ing
C F
le ar
ĠP R
Ġcompar ing
Ġmyocardi al
m ax
C o
l im
ĠB MI
i atric
Ġcan cers
Ġregul atory
ing ly
cl es
Ġchann el
Ġre placement
er ior
Ġpro spec
Ġte am
Ġpep tide
Ġconst ant
ĠD ec
Ġprac tic
Ġvari ants
Ġtraum a
Ġsec tions
Ġadd ress
ĠA B
ab ine
Ġha ir
Ġ ure
id ae
i ents
Ġsmall er
ĠSever al
Ġsumm ary
tr y
Ġsub stit
Ġfamil ies
Ġstar ting
in us
ĠWiki Doc
p oint
or gan
Ġconc om
Ġh arm
Ġserv ice
i asis
Ġgastro intestinal
Ġp el
Ġup take
Ġconcom itant
ib ly
Ġmain tained
em ber
e e
Ġf all
Ġprocess ing
b b
Ġvers ion
ĠB y
Ġperson al
Ġdis ch
Ġr un
Ġl iqu
Ġat tention
le tal
Ġcan d
Ġdis tal
Ġdev ices
Ġsus p
i as
Ġmon it
0 8
Ġecon omic
ĠM ul
Ġapp e
ĠQ u
Ġultras ound
ĠP e
Ġdiamet er
Ġbe gin
Ġlay er
Ġl as
Ġvari ant
Ġslight ly
ĠV al
Ġ Ï
Ġrec ip
Ġclass ification
Ġcol or
ĠIn dications
Ġd erm
ra is
ĠM in
Ġsp read
Ġmin imum
Ġachie ve
Ġpartic les
Ġline ar
Ġreport ing
art ment
Ġfollow s
ill ed
Ġmolec ule
d raw
Ġadoles cents
Ġmin or
om iting
Ġpharmac okine
Ġsur ge
ri a
Ġch olesterol
Ġmo b
Ġcyt oplasm
Ġcomple tely
ĠâĢ ł
Ġsepar ate
Ġaccum ulation
Ġbar ri
Ġexpl ained
9 7
ĠSec ond
ĠG erm
Ġprob ability
en al
ch loride
ĠCh ild
Ġch lor
Ġfor ce
Ġelectr on
Ġ âĪ
Ġp ap
ang u
Ġb ow
Ġha em
Ġc av
Ġmod ified
Ġfluores cence
us ep
ĠC are
usep ackage
Ġre v
Ġcon ver
Ġprost ate
Ġb ronch
ĠS yn
l ife
Ġs em
ill ance
Ġtrans ition
Ġcontin ue
Ġimplement ation
Ġc re
Ġd en
Ġequ ipment
ĠC V
Ġbl ack
Ġconcer n
ĠI F
ĠCon f
tiv es
id ent
Ġth or
Ġg ive
Ġimp aired
Ġsuit able
c g
pp ed
is ions
Ġan tim
Ġapp arent
Ġinf arc
Ġquestion nai
Ġvacc ines
Ġinvas ive
ĠIm p
Ġpre m
ere s
Ġrec urrent
b al
Ġbehavi our
Ġremo val
o lec
re hens
Ġmill ion
Ġcand id
in ine
it ude
Ġmo vement
Î ³
9 3
I s
Ġenh anced
Ġrapid ly
ĠAn other
Ġmem ory
Ġsc hed
dition ally
n a
on in
os ing
Ġan xiety
Ġg e
Ġco up
ĠS ur
Ġasth ma
Ġprob ably
ĠAd ministration
/ /
Ġman ner
Ġcontinu ed
Ġd ry
Ġhypot hesis
H R
ĠAf ric
osp itals
per m
Ġmut ants
Ġmy el
Ġflu or
os es
Ġpart ners
Ġ3 00
l ink
Ġthe rm
9 1
Ġj ust
ĠPregn ancy
er t
Ġpar tial
Ġphen otype
Ġref r
Ġunder w
ĠS urg
Ġbre ak
Ġres olution
Ġmor b
Ġde vi
Ġend othel
U L
ĠEurope an
ĠF e
Ġin struc
Ġrese arc
: //
on ucle
at ur
ac er
ĠIC ER
8 6
Ġal pha
Ġdes pite
ĠR ad
ĠQ ALY
Ġpro phylaxis
Ġequ ivalent
ont aneous
Ġchall eng
ause a
Ġcons ent
Ġer ror
Ġneu rop
Ġv es
Ġwh om
ĠI N
Ġprefer red
ri ef
Ġus es
ĠN F
Ġro ot
ĠH ospital
control led
Ġlimit ations
tro duction
ĠH ow
olog ists
Ġmem ber
Ġout side
Ġhem orrh
8 7
Ġmetast atic
Ġorgan isms
Ġret urn
le ts
ac ent
vere x
Ġdel ayed
II I
t ub
Ġregim ens
Ġlapa roscopic
ĠO p
Ġt en
Ġeduc ational
0 6
Ġmonit ored
Ġinter f
con taining
Ġadj usted
Ġmac roph
ymptom atic
Ġprolong ed
Ġprogn osis
u tive
Ġinter medi
O H
Ġhigh l
I M
eren ces
Ġex act
D M
Ġem o
O C
Ġr h
Ġfib rosis
port un
Ġmo ve
pec ts
Ġpo ol
Ġprof il
Ġcur ve
Ġsign als
Ġan at
Ġinc l
Ġmat rix
g u
g ans
omet ry
uss ion
ĠA G
Ġgener ation
Ġpre v
Ġ7 2
oc omp
Ġf ung
os por
Ġexc re
icro bial
as p
Ġu tility
Ġ199 9
Ġexist ing
ĠF inally
e ast
Ġre vers
ĠA ustr
Ġpres cribed
os ite
Ġbl ue
Ġinvol ves
Ġv omiting
Ġto ols
oph age
Ġprepar ation
id er
Ġv ector
ly c
9 4
ĠL ab
ĠD M
Ġs ed
8 2
Ġinvestig ation
Ġto m
Ġ1 50
ĠC ontrol
ĠD I
Ġext ended
Ġsci entific
Ġprog ress
Ġenc oded
Ġreas ons
Ġg ained
Ġcont rain
Ġbas ic
ĠCl ass
Ġestab lish
Ġw ord
Ġsw it
Ġwith draw
Ġtub erculosis
Ġsecre tion
Ġits elf
Ġnucle us
Ġunderw ent
P R
Ġs u
Ġindi rect
rais al
ĠRecommend ations
n el
Ġkn ock
Ġsubstan tial
Ġphys iological
ĠC L
Ġex cept
Ġsuper ior
Ġun ique
ĠS ociety
Ġm arg
Ġinform ed
Ġlink ed
f l
Ġpre dom
Ġw oman
S M
Ġ4 00
ne gative
Ġair way
Ġnerv ous
Ġob tain
Ġallow ed
v als
Ġremain ing
Ġcor related
Ġal b
Ġas semb
Ġact in
l it
w ith
9 2
a emia
tr ation
Ġconsum ption
Ġepid em
Ġgen otype
lamm atory
reg ulated
g er
Ġve in
Ġto o
Ġdatab ase
Ġant agon
Ġo pp
lox acin
D G
Ġol ig
ĠT NF
Ġb ond
Ġbl ot
Ġc ys
g ue
ĠS NP
8 1
Ġt ren
Ġagree ment
d ed
Ġbow el
Ġinjur ies
Ġ rol
Ġover l
Ġg et
ĠâĨ ĳ
row n
Ġtarget s
Ġtr ue
Ġa er
Ġsm ok
Ġcompar able
Ġexper t
Ġparen ts
Ġintrac ellular
str uct
8 4
b i
t est
Ġcaus ing
Ġst abil
a ro
tion ed
Ġdefin ition
Ġbas al
Ġof fer
ĠF A
Ġfe ed
Ġey es
Ġmid dle
ad s
ĠAl tern
ific ations
Ġgl ut
Ġphys icians
ĠMe an
ot e
Ġen rol
ĠEn d
Ġcult ures
ic t
Ġc e
T P
ĠR ed
Ġop portun
am ination
ĠAss ociation
t able
ĠSc i
Ġmark er
s ub
Ġthe ory
Ġman ifest
Ġepithel ial
m ed
Ġs atis
Ġliqu id
Ġas pects
l l
Ġtyp ical
Ġsur round
Ġdetail ed
al le
op s
Ġ4 2
Ġen ough
Ġde ep
clus ions
Ġim pl
ass ium
ĠH igh
oglob in
Ġpar as
s m
âĪĴ /âĪĴ
ĠP ers
Ġcommun ication
y ond
Ġmechan ical
Ġl ic
l abel
g al
Ġst ability
Ġdel ay
Ġp ig
Ġqu al
arr hea
Ġlymph oma
Ġaut o
lyce mia
or g
Ġh ar
in ate
ophage al
Ġnurs ing
Ġv as
Ġm outh
Ġon line
ĠE m
ĠN eu
ĠW estern
on azole
Ġre le
ĠUs ing
Ġcomplex es
Ġul cer
Ġcomple ted
Ġre plication
ol ute
Ġconcer ns
8 3
Ġf ore
Ġyoung er
Ġl aw
Ġst om
Ġabs orption
P P
i ef
Ġp y
f ort
ros pective
Ġtrans cript
lec t
Ġprospec tive
Ġfacil ities
Ġglob al
T E
ĠS w
res istant
Ġme et
O M
Ġre verse
Ġarter ial
ting u
Ġcor d
Ġdepend s
Ġspecim ens
in ter
er ative
Sup plementary
ĠAssess ment
Ġcontrac ep
ĠR et
Ġcar ry
Ġinter vals
ĠÂµ g
por tive
yl ation
Ġsp ontaneous
Ġsumm ar
rom ised
Ġkn ow
y ing
en ari
Ġamo unts
Ġcomp r
Ġb and
ic le
ĠS te
Ġcon cept
Ġphosph ate
Ġet c
Ġassum ed
Ġvess els
ĠR isk
Ġex pect
Ġrec onstr
Ġin put
mon th
Ġsurve illance
ĠC ardi
s s
Ġem ph
Ġh ospitals
ĠIntern ational
Ġclos ely
ĠD ifferen
ĠT A
C I
Ġf usion
Ġsol id
F S
0 7
op ic
Ġs om
Ġcle an
og ram
lud e
ĠCom par
Ġn ode
Ġventi lation
tt p
lo ad
Ġpractic es
Ġde part
de ed
Ġo d
ĠF rom
ĠR CT
ist ing
ĠP I
ĠA p
ĠS uch
Ġad herence
ub iqu
Ġcol um
_ _
Ġop i
Ġpresent ation
ĠH R
Ġremain ed
ok ines
ĠMedic ine
s uch
Ġmalign ant
Ġhyp og
Ġu ter
Ġco eff
Ġn od
ox icity
ac ing
Ġn ausea
ĠStatis tical
m g
Ġmin imal
Ġmorb idity
K D
Ġcomp rehens
omet ric
Ġintro duced
Ġdis rup
iz ations
Ġ4 4
Ġ( %)
ĠI D
dep end
Ġm cg
ĠDe velop
h abil
Ġg reen
Ġdis tingu
Ġsymptom atic
Ġspectr um
ĠV ari
Ġlocal ization
ob ic
E A
z ing
Ġac quired
arg ed
Ġstar ted
Ġa ud
anc ies
ĠH A
d L
Ġb ab
Ġsk ills
Ġa way
am es
is ons
Ġst ated
Ġ5 5
ĠC M
t reatment
hel ess
Ġf lex
Ġrequire ments
x y
m es
ĠH S
ĠR h
Ġenc our
Ġcons erved
Ġphen omen
Ġlab or
Ġdr ink
ĠH uman
it inib
Ġimmedi ate
Ġlas er
ĠB P
Ġobserv ations
Ġdeath s
oscop y
Ġfe as
ĠL o
Ġse ems
Ġcol i
Ġdiff er
Ġven ous
ath y
Ġextr act
Ġquantit ative
Ġob jective
Ġbal ance
f usion
a id
Ġm agnetic
ĠNot e
ĠDisc ussion
Ġ4 3
Ġdec isions
Ġmet al
Ġexpl an
Ġbl adder
ĠIndi a
Ġl isted
Ġtarget ed
ĠN one
Ġpsych ological
Ġchann els
Ġdegrad ation
ing er
Ġprot ective
Ġoper ation
Ġcycl es
ran ial
Ġhydro chloride
Ġcoun s
ĠD el
Ġset s
Ġl ive
Ġatt ack
Ġanal og
ĠE D
Ġoccur ring
c ol
ĠPro g
o ag
p ers
Ġg overn
Ġaffec ts
Ġco ver
ax el
Ġt el
effec tiveness
Ġman us
Ġhead ache
I A
u xim
Ġs inus
Ġ199 8
Ġacc omp
Ġd ental
re es
Ġca pt
Ġf ron
oglob ulin
i ra
Ġtoward s
Ġvi ol
atin ib
ĠB r
Ġpur pose
k al
Ġrel ation
Ġsampl ing
o on
Ġstop p
Ġg est
Ġext ra
ar th
opro tein
ut ing
ococc us
Ġstandard s
l ip
itone al
ĠS A
l i
l s
Ġcon gen
Ġunder go
Ġprevent ing
tro ph
Ġbe yond
Ġconsider ation
ĠP ub
Ġdon or
ly cer
Ġy east
activ ity
Ġcere bral
uv ant
Ġproxim al
Ġd rain
pl asia
Ġj ud
ĠS ign
rom ycin
le vel
Ġcomp are
Ġele ment
Ġs perm
Ġne ph
ap ted
inf lammatory
Ġo verex
ad es
B C
ĠH b
Ġpar ts
v as
Ġprinc ip
ot rop
Ġsc hem
at ter
Ġunder going
Ġver te
Ġe ight
habil itation
Ġsc enari
Ġsitu ation
ec ting
Ġdocument ed
ĠÎ Ķ
if orm
ĠE valu
Ġavail ability
Ġdescrib e
Ġeas ily
Ġapp raisal
or ld
Ġp ack
Ġdecre ases
Ġadv ice
re x
Ġs oci
Ġun treated
Ġst ained
ac co
Ġdef ect
ence phal
ar n
ĠC d
ont in
ph ase
Ġeff iciency
olog ist
ott om
D C
id al
ment ation
Ġpol ar
Ġaccur ate
Ġab und
ĠT echn
ch ange
Ġint ended
l ated
m od
ir al
Ġac qu
fer on
O X
le y
Ġdi arrhea
v ascular
arc in
Ġben z
reg ulation
uxim ab
Ġh ard
Ġcor tex
Ġf oot
id em
Ġsc ler
ra f
Ġsusceptib ility
ĠU p
ĠH yp
ococc al
ur y
Ġinvestig ate
Ġmat ter
ĠC urrent
ne a
Ġdiet ary
Ġpancre atic
Ġmanus cript
Ġinf ant
ĠComm on
L E
Ġstep s
ec utive
Ġbec omes
plement al
Ġintermedi ate
Ġl angu
vir al
in ol
Ġit ems
Ġtechn ical
s w
Ġposs ibly
ĠPr im
ult aneous
Ġinfec tious
Ġperiod s
Ġsubun it
Ġrecr uit
ri um
Ġmemb ran
Ġhydro gen
S t
Ġd raw
Ġrecogn ized
ol ytic
C H
Ġsup portive
Ġcateg ories
en ic
A d
Ġt y
Ġn asal
Ġap plic
Ġcharacteris tic
es e
Ġcontain ed
ĠAd verse
SC s
Ġre n
Ġan esthesia
Ġmethyl ation
Ġint ensive
ĠCD C
ĠâĢ İ
ĠT otal
ĠP an
Ġradi otherapy
ĠE r
Ġro b
ĠIg G
0 9
Ġculture d
Ġm akes
Ġsequ encing
Ġres istant
Ġreview s
ul atory
Ġarth ritis
Ġinfarc tion
ĠA UC
ak en
Ġcorresp ond
Ġiss ue
Ġendothel ial
Ġcons ists
Ġappear ance
Ġreduc es
Ġmicroscop y
ĠN P
ĠO c
Ġantim icrobial
per t
Ġwrit ten
pp ing
im umab
Ġar row
ref erred
ĠE S
av age
ĠM T
ĠC r
pos ition
ig ible
ĠE d
Ġal tered
Ġsitu ations
ĠF l
v ic
Ġincl usion
Ġex ce
res ent
Ġfil ter
os up
ĠH ere
Ġag on
eli hood
Ġbur den
Ġse ven
Ġext ension
m en
as one
Ġheter ogene
Ġpolic y
et er
ĠÎ¼ M
Ġre pl
Ġl act
ĠL V
Ġcomm ercial
Ġed ema
Ġv ul
ol ysis
Ġin stead
ox in
ĠAd ditionally
ĠDise ase
ĠA ut
Ġrelationship s
Ġconsult ation
Ġiniti ally
Ġch ol
Ġalgorith m
por ter
ĠG CC
ĠâĪ ¼
he um
erv ation
Ġbu il
Ġgu ide
Ġv ision
Ġrepe at
Ġoff ered
ra b
ĠI P
Ġcon clusion
Ġwh y
Ġgen omic
Ġnorm ally
Ġneed le
Ġgo al
ĠKore a
Ġwas hed
Ġdifferen tial
B L
ĠC C
og ens
ig ma
ĠCell s
Ġal ign
ĠL ow
Ġm arrow
Ġoccur rence
a ine
Ġunc lear
Ġshor ter
ĠG FP
Ġabs orb
Ġintern ational
N O
ĠT ri
Ġenc oding
Ġov arian
T G
Ġexp ressing
Ġcongen ital
Ġcoun try
Ġas ymptomatic
Ġvis it
Ġmig ration
AT A
Ġthick ness
Ġcom orb
Ġext ensive
Ġinter view
oph ys
ĠOr gan
Ġadjust ment
Ġpredom inant
Ġor gans
Ġhelp ful
p m
Ġpol yp
ĠFollow ing
Ġmus cles
Ġe c
cl inical
Ġcomp osition
ĠS am
ard s
ĠHB V
Ġmetast asis
Ġstate ment
Ġpolym orph
hes ized
Ġne ural
Ġfat ty
D s
Ġpl anning
Ġad apt
Ġfail ed
Ġmedic ines
Ġint estinal
es ted
Ġst ent
ĠC enter
ĠAn ti
Ġlat ter
Ġrepresent ative
om s
uct ure
Ġo il
Ġb ed
op enia
Ġfocus ed
Ġad op
Ġthan k
Ġaff inity
y e
Ġfe eding
ĠOn ly
Ġ4 6
Ġextrac ted
ĠDes pite
ad j
ĠE th
u ments
Ġcl a
Ġsk e
ĠD et
es ter
yp t
Ġfib ers
Ġmix ture
Ġst ri
Ġd up
le ft
Ġuncertain ty
ardi a
Ġrecogn ition
CT ION
Ġsp ati
Ġlo oking
Ġc entr
et us
ĠS o
jec tions
ĠInc re
ubiqu it
it abine
Ġke ep
ast atin
Ġsh ape
u ary
ati gue
S H
ĠCanad a
Ġsub cutaneous
Ġseiz ures
ĠB ut
L I
a ment
st ances
Ġra d
Ġill ustr
ĠS ymptom
Ġapp ly
ĠPro tein
a utions
Ġmon itor
m al
Ġfacilit ate
act in
Ġthere by
Ġisol ates
ile p
C on
T B
ac u
Ġde ple
Ġprob e
os al
Ġpers istent
hyth m
al se
Ġval ve
ol id
Ġprog ressive
g g
ĠP BS
Ġpair s
tic ular
00 01
ĠH PV
oz yg
fe eding
Ġhom olog
ĠMon itoring
ĠT H
Ġm ening
os ures
Ġpre cur
usc ular
Ġpot assium
Ġn odes
Ġon going
Ġextrac ellular
ĠGuid elines
ang i
Ġlik elihood
Ġobstruc tion
Ġdisch arge
on tal
ĠGen eral
olec ular
Ġhy d
Ġsim ultaneous
Ġpl ays
Ġrepro ductive
Ġbind s
ĠHist ory
Ġin n
ĠE l
Ġsh all
Ġe ch
Ġmo tion
Ġt ail
ĠP ath
G uid
od on
f a
Ġin depend
on omic
ĠO ut
Ġspecial ist
the tic
b ut
ĠF unction
Ġb ul
Ġdevelopment al
Ġres on
ĠB o
Ġsh ock
ĠN A
Ġto b
ot es
ĠA F
Ġde x
ĠSimilar ly
Ġm ach
ĠTh ree
oc rine
Ġus ers
ub ation
Ġr it
l in
Ġra bb
Ġneurolog ical
Ġac cep
Ġrare ly
ens ed
bre ak
Ġartic les
Ġp le
i red
ĠS outh
ĠP ediatric
Ġsubsequ ently
ĠAd ditional
activ ation
it ary
Ġre habilitation
Ġconsider ations
Ġ4 1
Ġquestionnai re
Ġgrow n
Ġmembran es
Ġs un
ili ary
ren al
der ived
Ġclin icians
st ood
Ġ5 2
Ġpublic ation
ari ate
Ġrol es
ore c
Ġcar ri
Ġmean ing
ĠN S
Ġcomprehens ive
oph ren
Ġsch iz
Ġmacroph ages
Ġvag inal
an al
Ġall ergic
g ing
Ġc y
Ġrequ iring
di ent
ĠG C
ĠI S
ann ed
Ġc yst
Ġcorticoster oids
Ġl ob
L P
Ġpro ject
ab etes
Ġalle le
w ell
" "
Ġsi RNA
ĠM ET
Ġs n
Ġâī ¤
E V
Ġend ogenous
Ġgener ate
ĠSe e
Ġsubst ance
av ing
alle l
Ġform ula
Ġse ek
Ġ Ã
ĠLab oratory
ĠEvalu ation
Ġtoler ance
ĠT ype
Ġcateg ory
id ed
ĠP referred
ĠR el
Ġadhes ion
Ġrefer ral
â Ħ
ĠK e
Ġhe ight
Ġsupp ress
ĠInterest ingly
Ġte eth
at ch
Ġaccept able
us h
Ġcere b
acer b
i ance
ĠF ran
Ġm and
L R
Ġabs olute
Ġar ch
Ġpart ner
ĠG P
r ac
Ġst ored
ĠC ateg
ĠD ef
Ġan emia
ĠRes p
ew ork
Ġop tical
Ġcoll agen
as ion
Ġlarg ely
ĠA RT
ten u
Ġpredic tive
Ġpur ified
Ġdist urb
Ġprofil es
Ġne ver
Ġdifficult y
Ġin jected
ĠGerm any
pos es
Ġcontrain dic
Ġe vid
ĠPre vention
Ġcreat inine
Ġ199 7
Ġat rial
an ted
ec tions
ĠMul ti
Ġr ing
Ġstom ach
orec tal
Ġunder stood
Ġresearc hers
" ,
le ge
Ġanal ges
el ves
os en
Ġbreat hing
Ġfract ures
Ġp i
Ġad mission
Ġreg ulated
entr y
Ġst ay
ator ies
Ġselec tive
Ġdistrib uted
om ycin
Ġdiscontinu ed
g rade
Ġse em
Ġnucle otide
Ġinterpre tation
Ġb ars
cur rent
gen ic
s tim
Ġlo ok
Ġcol d
os yn
ĠB lood
Ġgra ft
B G
ĠR A
ĠC F
Ġw ave
Ġre ached
ph il
Ġery th
ĠChild ren
st ate
Ġfe el
Ġadvant age
Ġf ix
Ġac kn
Ġy ellow
ĠDep artment
Ġaccep ted
Ġa ortic
Ġfew er
et her
Ġk et
Ġc is
Ġgl ass
B M
Ġhy brid
Ġ2 50
Ġtum ours
Ġbi o
Ġrob ust
Ġcare rs
Ġw ind
gen eration
Ġdiscontinu ation
res h
ĠRecommend ation
ord ance
Ġtra vel
ĠIF N
ĠG u
ĠA ge
ĠC hem
Ġplate let
if ug
Ġmedi ated
ers ensitivity
Ġconsequ ences
Ġer r
Ġconsider ing
c ious
Ġfib r
ĠH em
ast y
Ġinf il
Ġtom ography
Ġse as
Ġher nia
Ġ1 000
Ġle t
yc ardia
Ġcav ity
Ġaut om
Ġca ution
Guid eline
Ġh our
ĠA v
Ġsupp ression
Ġcoun ter
aqu e
d im
Ġexp osures
Ġvari ability
en tical
em plate
Ġk ind
am eth
uz umab
Ġeff orts
Ġrati os
abil ities
ri e
Ġcl osed
c m
Ġpres cription
en di
Ġcyt os
Ġ $
Ġret rospective
Ġlangu age
ar p
Ġso on
m ethyl
ac ial
Ġcir rh
Ġacc el
act ing
Ġrecord s
ti tis
ĠP lease
Ġr ash
Ġnec rosis
Ġbec ame
Ġap plications
Ġsupport ing
ĠS af
Ġco verage
Ġtarget ing
ĠT GF
D R
Ġpor tion
Ġsh ift
Ġto oth
Ġcolum n
us ions
Ġemploy ed
Ġseg ment
Ġcircum stances
ĠDiagn osis
Ġd rop
Ġpath ology
Ġmm ol
Ġprogram me
en ge
Ġf etus
ĠC ont
ĠO F
Ġme eting
Ġax is
Ġcomp osed
Ġcareful ly
ĠT est
Ġst orage
Ġiniti ated
form ed
Ġdep th
Ġth in
Ġregard less
immun e
d oc
Ġexp and
ple te
Ġinser tion
T h
Ġt ell
Ġsu ic
Ġon c
Ġsatis f
ĠSt ate
Ġhemorrh age
Ġinsuff icient
ĠAd v
Ġsol utions
enti ve
Ġother wise
av y
Ġincub ation
Ġ :
ocyt osis
Ġrepresent ed
Ġassess ing
Ġcompar isons
Ġun less
b ox
cl er
Ġnot e
Ġcoun ts
Ġc reated
ĠM al
ge al
} }
Ġex acerb
Ġgl and
Ġsal ine
ĠSymptom s
crip ts
Ġtrans ient
Ġp seud
im ent
Ġdi alysis
ĠM ut
Ġ9 6
Ġprogn ostic
Ġneut ral
Ġne g
ms elves
Ġstand ardi
Ġoxid ative
Ġe ti
Ġn one
d ers
Ġpl ot
Ġantic oag
Ġconj ug
ĠSt and
Ġmeas uring
Ġdele tion
Ġembry os
Ġthe mselves
Ġrem ove
Ġtob acco
Ġwithdraw al
Ġchang ed
Ġextrem ely
ol ip
Ġchar ge
Ġh ouse
Ġmen tioned
R es
Ġ201 3
Ġendoscop ic
L D
am ous
Ġagg reg
ac ic
Ġlo op
O P
at um
Ġclus ters
is ition
yl ated
lu ores
ro f
ad y
Ġcl ar
Ġinvol ve
o oth
Ġt ip
her it
5 00
ĠT R
ĠIn iti
cr im
tif ication
Ġf atigue
Ġsub set
er ated
ĠP ot
Ġmost ly
me an
Ġg on
Ġatt ach
Ġsupp ly
ĠI R
bl ind
Ġam b
Ġvirus es
ĠE lec
ĠG iven
ĠCh ar
i ples
ur ance
Ġpres crib
ĠAn alysis
Ġout break
Ġl um
ww w
en osis
s ection
Ġro und
Ġbenef icial
{ \
ID S
Ġrang ing
Ġclin ic
Ġnurs es
Ġv ial
c ome
n atal
t age
ĠH P
ĠMan agement
ĠM a
ific ant
lu or
Ġv el
Ġappe ared
Ġfe ature
Ġtra ditional
on avir
ĠPrim ary
Ġpri v
Ġdevi ation
ĠOver all
Ġsepar ated
r il
Ġfibro bl
Ġf alse
Ġexam ine
Ġeff icient
ĠAc ute
Ġdi ver
Ġimmun osup
ĠB as
Ġcyt okines
Ġform al
Ġ ions
ĠG GC
ĠO b
ĠR ES
Ġrele ased
Ġmod ification
Ġd ark
Ġnutri tional
ĠDI SC
Ġ ).
Ġse ed
oster one
Ġthe ore
Ġorgan ic
Ġsusceptib le
ic a
ĠW orld
Ġrandom ised
Ġid entical
G E
ol l
all ed
, .
un ted
yp ical
Ġs ac
re pt
Ġpl astic
Ġass igned
Ġ4 7
Ġtempor al
Ġconduc t
Ġregion al
Ġpos itions
end s
EN T
back ground
ĠC al
Ġmother s
b orn
ocomp romised
Ġprac tition
Ġbelie ved
f aces
yt es
ill ing
Ġperson nel
Ġr ise
Ġout put
AG E
Ġvis its
ell ar
Ġat tenu
activ ated
Ġbel ong
roscop y
we ight
endi x
Ġc oding
tro viral
Ġemo tional
Ġschiz ophren
Ġexplan ation
Ġqu ick
er a
er o
t heless
ade qu
Ġ4 9
ĠSc ience
Ġprotoc ols
Ġattem p
lo id
ne e
ĠCateg ory
Ġpromot ers
Ġbegin ning
ell ed
Ġregul ate
acter ial
p an
Ġmod e
ra ft
ify ing
Ġ entry
a fter
os ide
Ġtr ache
ici ently
Ġassemb ly
Ġdec line
Ġtranscription al
Ġar tif
w here
pl atin
Ġgra d
Ġimpro ving
Ġfin anc
Ġallow ing
ĠP S
duc ing
Ġ5 3
Ġexhib it
ĠEng land
Ġor ient
Ġpresent ing
ch ar
Ġder iv
Ġir rit
Ġchild hood
lik ely
Ġdom inant
Ġir radi
Ġresid ual
Ġact ual
Ġpep tides
ed ic
roph y
ĠC ar
Ġcom plication
Ġ5 6
Ġrel apse
Ġtransfer red
aryn geal
ĠSc ale
In troduction
Ġab use
Ġdis cl
ace u
Ġin hal
Ġinvestig ations
Ġcur ves
ip it
ros ine
Ġsal t
at ology
Ġh or
Ġmelan oma
Ġtransf ected
Ġbil ateral
Ġp ump
ur se
Ġexp ress
Ġoper ating
he ad
Ġr ule
Ġpredic tion
E s
ĠC NS
Ġun able
G TT
Ġw ors
Ġb all
ad en
ĠCons ider
Ġsuccessful ly
an a
Ġcla im
Ġben ign
Ġl ost
Ġus ual
odyn amic
Ġask ed
Ġparamet er
ĠÂµ m
ĠN um
b ility
ĠPre vious
AA A
Ġidentify ing
ĠInter actions
Ġske letal
rom bo
Ġg r
ĠImp airment
our nal
Ġf atal
Ġl ens
Ġco vered
utri tion
s up
un e
ĠS U
Ġnutri tion
Ġsup erv
op or
ox y
Ġinstruc tions
O T
act ory
Ġpar allel
H T
ment ed
Ġins ide
ro ximately
Ġtrain ed
amm a
Ġfram ework
ĠF ound
ph thal
Ġne arly
Ġexcess ive
Ġupd ated
ch ym
Ġdifferenti ated
Ġt ext
Ġindic ation
Ġ199 6
Ġinvas ion
a res
dep ress
Ġcre ate
Ġexhib ited
ol i
ill ation
ĠS V
Ġsurround ing
Ġres ource
R R
Ġgrow ing
ĠI U
Ġun likely
io tic
Ġdispl ay
Ġneon atal
L S
Ġt ight
Ġde b
Ġcomp uted
Ġbi ochemical
ibr ary
el t
Ġcirrh osis
Ġg raph
ĠA S
Ġlow est
Ġspati al
Ġan th
ĠEffec ts
ber g
Ġtable t
ĠH F
cl ass
arm aceu
Ġhypot ension
A g
Ġ ubiquit
Ġin g
Ġvary ing
Ġsw elling
Ġc ode
Ġtr im
and emic
ap tic
az ep
Ġm ature
â ī
Ġper man
Ġvel oc
Ġcomp ens
Ġreson ance
G S
ul um
ĠO S
ĠL ong
Ġ8 5
Ġcomp uter
ĠU l
Ġdyn amic
O VA
at her
Ġacqu isition
Ġadj acent
Ġsur faces
Ġweak ness
Ġdisco vered
p at
Ġdon ors
B T
Ġcon version
ĠF und
ĠIn s
Ġmorph ology
Ġ5 4
Ġfood s
ĠNor th
Ġinstr ument
Ġon to
Ġk er
Ġ6 4
Ġs plic
Ġinhibit ory
vas ive
ion e
Ġt ax
ĠP a
Ġlocal ized
Ġinstit ution
Ġenrol led
ĠD C
Ġassoci ations
im us
ĠA V
Ġdis ability
ĠExper ience
it ud
ĠM icro
U T
u ed
effec tive
ell itus
or ical
ch lor
o tides
Ġepis odes
Ġend omet
Ġaccomp an
Ġan e
Ġattrib uted
il ities
ĠF our
Ġ12 0
ĠL DL
Ġinhib its
Ġf ed
Ġ5 1
Ġmetast ases
ĠPe ople
t es
Ġeth n
al low
Ġpar tially
ud ine
Ġextr action
ĠProg ram
Ġstate ments
ur a
Ġor ally
Ġop in
rop ri
at ase
az ine
Ġvis ible
ĠQ T
Ġch osen
Ġinhib ited
Ġdirec ted
Ġneur onal
ud den
Ġpur poses
Ġrecruit ment
Ġcentr ifug
Ġsubstan tially
p ly
Ġmetabol ites
ĠT T
Ġcr uc
Ġfeed back
Ġrad ical
ur ys
Ġprot ect
Ġa z
Ġcent ers
% ;
Ġvess el
Ġchall enge
ĠRe view
Ġrecomb inant
Ġar ms
Ġplasm id
ic in
ĠC ent
p hen
ension al
Ġbiom ark
hem atic
Ġindepend ently
ĠR enal
lu x
Ġradi o
E GF
Ġnum erous
Ġco ugh
Ġvalid ated
Ġadi p
ĠDevelop ment
Ġinduc es
Ġnucle i
ĠN ever
ati f
ĠJ an
Ġaffec ting
Ġre tention
ĠB R
Ġdispl ayed
Ġnormal ized
Ġerr ors
Ġf resh
z ation
C N
r ist
Ġtrans lation
Ġorgan ization
ogen icity
Ġisol ation
Ġreli able
Ġsub t
Ġar rest
Î º
Ġcontrib uted
Ġin adequ
id i
OD U
H g
ĠG R
Ġw ays
Ġindic ations
Ġeffec tively
Ġdef ine
ĠCh ina
Ġacet ate
Ġnam es
ch ang
ĠIm ages
pt in
Ġmi RNA
Ġfrag ments
Ġm ar
Ġmamm alian
r as
Ġper for
Ġn ons
Ġdown stream
ra ys
ati bility
ĠS S
Ġanalys ed
ul monary
Ġex ists
Ġrestric ted
Ġb odies
ĠE M
Ġdis crim
Ġr ational
ci pl
Ġl a
Ġsm ooth
b it
os ine
ot oxic
qu e
Ġm ask
Ġann ual
ĠH ear
Ġmon otherapy
Ġro t
Ġeth anol
Ġattem pt
reat ening
ĠO ral
ik e
oph osph
opath ic
Ġtren d
ce ived
Ġspec ified
Ġle aves
Ġh ab
ipp oc
Ġle af
ive red
ox yl
Ġpen et
Ġload ing
Ġs ound
Ġsub jected
Ġspe ed
Ġdistingu ish
ĠS al
Ġmul tic
Ġrang ed
f low
z er
Ġbl ind
ef t
Ġcoll abor
U SS
re troviral
ĠT G
Ġpath ogens
Ġpul se
ĠPhys ical
at osis
ĠP op
ĠA AA
Ġintegr ated
Ġm ellitus
ĠU SP
obl ast
Ġcomorb id
at o
Ġl and
ĠP sych
B s
Ġrem ission
am b
Ġat he
Ġperform ing
Ġpharmacokine tics
Ġex change
ĠF act
Ġch loride
Ġpharmac ist
Ġnit rogen
ODU CTION
ĠAl cohol
Ġprinc iples
Ġex on
Ġcle avage
Ġhist ological
Ġparen t
Ġr heum
ĠT F
ĠP K
ĠE GFR
iz z
Ġvari ations
Ġproduc es
Ġmicroscop e
TR ODUCTION
Ġp age
Ġleuk emia
it ative
tic ip
c or
ach ing
Ġs we
ic ular
Ġb rief
ly s
un te
v ol
Ġorgan ism
Ġr s
Ġpath ological
Ġan sw
Ġ ~
Ġrespons ibility
Ġscre en
g ent
ĠO x
Ġc it
Ġvari ance
Ġsus tained
Ġpath ogenesis
Ġlim b
Ġimplement ed
ĠJ oh
t ors
Ġexperi ences
Ġlig and
o ols
Ġ199 5
Ġnew ly
ĠS EM
Ġang le
Ġepid erm
ill i
ĠU V
c omp
Ġac ts
N C
ĠIn jection
hy de
Ġadv ised
ĠDISC USS
or i
Ġun s
ĠÎ¼ l
Ġschizophren ia
ĠW here
ĠN I
Ġk ine
ot omy
Ġ )
ĠW ork
ĠDISCUSS ION
ic les
Ġcol orectal
Ġtop ical
Ġlarg est
e es
Ġtim ing
Ġ5 9
de hyde
ĠSaf ety
D P
ĠM ay
Ġep ilep
et ry
Ġ6 2
GT G
Ġr ig
Ġcor tical
Ġinst ance
Ġischem ia
Ġsens ory
Ġfast ing
ĠH is
Ġsh ared
Ġprac tical
Ġac tions
A l
in ely
Ġn arrow
Ġdef ic
v a
yroid ism
d o
Ġh ip
am ber
ĠMaterial s
Ġe ver
or ic
ul ties
trib ution
Ġprim ers
Ġbarri er
Ġg al
Ġ9 9
Ġcl on
Ġen l
c at
um es
ost asis
Ġd op
Ġsubstr ates
in o
Ġd uct
ĠUn der
ĠThe rapy
Ġhe ard
Ġref ers
Ġeng ine
Ġlabel ing
phosph ate
n ight
r im
ef ore
M L
Ġ6 3
Ġevalu ating
Ġpsych iatric
vers ely
Ġstimul i
ins on
Ġres c
n ce
Ġs ense
Ġm s
ifest yle
Ġle ak
ĠConf lic
Ġan tiv
Ġtak es
land s
Ġplace ment
Ġst enosis
it o
ens ions
ĠSurg ery
an ti
Ġv aries
Ġobserv ational
Ġfol lic
Ġchrom atin
Ġsubun its
Ġgra dient
cipl inary
ĠD ue
ĠH CC
Ġvari ed
Ġadj uvant
Ġth ink
Ġfav or
us p
Ġsol uble
Ġhe aling
ot oxicity
Ġcan n
Ġdetermin ing
Ġdepend ence
ĠG I
Ġmod ern
Ġprogram mes
ĠD em
Ġmagn itude
Ġconflic t
emb rane
Ġt ach
Ġmitochond ria
Ġus age
ĠF inding
yp es
Ġtrans cripts
on ym
Ġhe avy
D H
ĠCompar ison
Ġclass es
bre vi
se min
ĠG DG
Ġass istance
ĠInt ra
e ti
Ġlabel ed
ĠMulti ple
Ġper i
ĠDi abetes
Ġexp ans
3 00
Ġimmun ity
Ġpers ist
Ġneut roph
Ġsuper f
ens itive
Ġ5 8
or ation
ĠAc t
Ġp ackage
Ġr ub
Ġin jections
Ġdel ivered
ĠAltern ative
Ġne opl
Ġin ner
id a
Ġid enti
Ġthromb osis
Ġpel vic
Ġcontraindic ated
ĠM o
p ass
Ġe gg
Ġlic ensed
op o
ĠN ames
atic ally
Ġarter ies
ĠF IG
ĠMe as
Ġ5 7
D a
Ġar r
Ġelim ination
ĠR OS
ĠDiagn ostic
an th
ameth asone
ĠI ts
ĠS erv
n t
ĠN H
Ġp andemic
Ġd u
ow s
ĠE arly
Ġvol unte
Ġinf erior
M C
ĠIn deed
Ġbehavior al
Ġanti depress
ĠF em
an ine
Ġobes e
ĠS H
Ġpartic le
Ġfib er
Ġfinanc ial
Ġk it
Ġextrac ts
ĠOn ce
Ġcomp et
Ġadd ressed
Ġmi RNAs
m ing
Ġrecip ients
ĠFound ation
ot in
Ġfac ility
Ġman aged
ne x
ig en
Ġapplic able
f arin
Ġb p
Ġaspir in
Ġacc ordance
to tic
ĠS he
Ġke pt
Ġcoeff icient
Î ¼
Ġdepart ment
Ġrout inely
ess ions
Ġim plicated
ippoc amp
Ġfor ward
ozyg ous
o qu
Ġal kal
ĠH ence
ĠG e
Ġlack ing
Ġt ree
Ġpl ates
Ġser ve
Ġsched ule
Ġreconstr uction
t ra
Ġpolymer ase
ti p
IN TRODUCTION
Ġvalid ity
m iss
in n
Ġ199 0
Ġp all
ep tide
yl ene
Ġr ank
op totic
enti s
Ġfunction ing
oh ist
Ġcruc ial
Ġpolic ies
ĠSpec ific
Ġim plications
ĠCh ronic
Ġparticip ate
Ġpur ch
Ġpharmac ological
Ġweek ly
Ġr up
k y
Ġrel ax
Ġconsider able
Ġfrag ment
asp ase
b ound
ro se
Ġ6 6
wh ich
pro tein
Ġcont amin
r ig
Ġbran ch
P T
Ġhyp ersensitivity
Ġaccompan ied
R s
Ġan not
ĠA K
Ġgro und
Ġnetwork s
st olic
ĠM I
IN G
Ġe osin
Ġmanifest ations
un ting
ys es
Ġun us
om ical
ĠL C
ĠW omen
Ġmod ifications
ĠSup port
Ġoccup ational
Ġp it
Ġv acu
ĠB et
Ġelectr ical
Ġdyn amics
Ġtrig g
Ġischem ic
iti vely
Ġword s
Ġb orn
Ġcont acts
Ġve h
Ġbehavi ors
et ric
Ġtr ack
doc ument
un s
ect ors
p tions
Ġsulf ate
Ġv ic
Ġopi oid
U N
p sych
anc ing
Ġem ission
ĠT e
Ġz one
ĠRec ent
vit rogen
Ġre tro
ĠP rec
Ġhe aring
Ġret inal
Ġdi verse
Ġr if
Ġconsist ing
ĠEffec t
oc arcin
Ġminim ize
Ġj unction
ĠP V
ul us
ĠS I
Ġel se
Ġequ ation
Ġcontrib ution
of ovir
Ġdat as
ĠAfric a
ap ed
Ġpo ison
E K
on y
ĠC TT
Ġoverex pression
an ib
Ġre plic
Ġspecim en
ec al
Ġcon form
Ġexcre ted
Ġemb ol
Ġpen icillin
st age
Ġphenomen on
Ġpot ent
Ġpool ed
ul ed
Ġste ady
Ġalb umin
Ġd ors
ĠG rade
Ġun ivers
ĠCol lege
Ġadmin ister
Ġcytoplasm ic
D I
ĠE ven
Ġhydro x
Ġox ide
ar tic
Ġsug ar
Ġprim er
Ġfil m
ph rine
Ġab lation
n at
Ġvol tage
ĠD R
m aking
he rent
Ġn M
Ġno ise
ĠAmeric a
Ġdiss ection
Ġ encephal
Ġz inc
Ġc DNA
Ġp ac
Ġfac ial
Ġv ar
ad ing
Ġpres ents
Ġproduc ing
sc ale
Ġaware ness
Ġhyp oth
phyl actic
Ġprecur sor
g ra
l am
Ġfer tility
ti se
Ġas c
i ologic
Ġbreast feeding
Ġhe nce
m i
Ġa id
ith romycin
Ġ6 8
ĠâĨ Ĵ
a por
ĠL abor
Ġint act
L T
ter al
Ġmain taining
Ġinflu enced
Ġworld wide
ĠNever theless
ĠS AR
Ġinser ted
form in
Ġhand s
ĠLe vel
Ġreason able
ĠM c
ĠP E
Ġin verse
Ġ( âĪĴ
Ġfield s
g a
ect able
al ities
ĠP ET
ĠMET HO
as te
ocy tic
en es
Ġar range
Ġs udden
Ġre ag
Ġane urys
Ġk nee
UL TS
. #
ĠN urs
Ġd og
enti ally
ines e
AT P
ropri ate
al ia
Ġf igure
ĠV acc
Ġchalleng es
ĠP ri
ĠM echan
mark eting
Ġcon struct
Ġsc ience
B R
t hesis
Ġcap able
k s
at uration
Ġdeple tion
af en
ĠFinding s
Ġdi ed
a pl
ĠS umm
Ġ7 7
Ġf inger
Ġst ain
Ġsh are
Ġhem oglobin
ol er
ĠF ood
um ar
Ġpol l
ĠCO PD
ĠRec ently
dis ciplinary
Ġpriv ate
b u
ĠAn d
Ġcertain ty
Ġy outh
Ġemph as
Ġcon current
Ġcl osure
ĠHear t
ĠÂµ M
ros cler
ĠL i
Ġdig ital
ĠSpec ial
Ġbuil ding
c ardi
Ġsurge on
g ia
Ġse pt
Ġper t
ycl ine
Ġstandardi zed
if er
Ġop ening
ĠL A
Ġisoform s
an es
ĠP H
pl ay
Ġint ubation
fer ase
l ig
ogen etic
Ġfrequ encies
r yl
Ġ( <
Ġel igible
ĠN K
Ġsubst ances
Ġmiss ing
Ġveloc ity
od ial
Ġl ifestyle
arb on
Ġs izes
uc cess
ins ic
Ġalter ations
ed ema
all ing
or tion
ell ent
v astatin
ul ative
ĠE P
Ġrev ised
l ength
Ġin h
Ġag es
Ġvul ner
ĠST AT
Ġrecr u
Ġmin eral
t hen
Ġw alk
ĠE T
val ue
ect in
d rug
Ġpro vision
Ġexpans ion
i ation
Ġfoc al
cop e
Ġenc o
aus al
Ġcompl iance
Ġpre operative
AT C
om ing
enti a
Ġro d
ro tid
1 01
ĠC X
otyp ic
ĠSNP s
Ġrup ture
Ġg all
Ġtask s
ĠStr ucture
in vasive
qu ality
ĠB efore
Ġdes cription
Ġrefr actory
est hetic
ĠQ ual
Ġunder t
Ġlim its
ĠP ark
Ġscenari o
ib ration
Ġhyp ox
ex isting
Ġfr uit
Ġstimul us
tr on
Ġ6 00
Ġd ual
Ġdecre asing
ĠE CG
ĠEx am
Ġtop ic
vel ength
Ġfix ation
Ġh ous
il ateral
Ġchrom osomes
Ġc ul
Ġty rosine
Îº B
Ġrespec tive
Ġb ottom
Ġpre d
ĠHy dro
Ġto ok
Ġfl av
um or
Ġimmun oglobulin
Ġdetermin ation
ro x
ol ine
Ġdiffic ulties
Ġintro duction
Ġlung s
aps ed
Ġsy ring
ira ble
Ġpe er
Ġtem plate
m ath
it er
ĠG S
Ġabs ent
def ined
Ġre active
Ġcol le
Ġposs ess
ĠHb A
Ġdeg rees
Ġn ic
Ġviol ence
Ġra ised
Ġqu ite
ĠM P
it ory
Res ults
Ġcons isted
Ġpow der
Ġo uter
Ġresid ue
Ġdist ress
Ġsubgroup s
val ent
ĠThe n
Ġmm Hg
Ġrestric tion
acet yl
Ġrandom ly
ochem istry
Ġcommun ities
oid al
uk ary
Ġha pp
entric ular
ĠG CT
Ġrepl aced
, [
Ġg ir
Ġelectro ph
Ġcom e
ĠR P
Ġloc us
Ġb ot
as vir
Ġhor iz
A n
z en
es ium
ĠP os
ĠRCT s
Ġh ippocamp
Ġspect ra
Ġ |
Ġhighl ighted
y loid
ĠI d
Ġem pir
Ġso il
4 00
ent an
h n
ĠSe vere
Ġperman ent
Ġret in
Ġfeas ible
Ġaut ophag
erv ative
ĠPro t
S e
Ġan omal
Ġg ap
ĠKore an
Ġster ile
ar a
p ub
lo vir
Ġappro val
Ġhospital ization
Ġpro min
Ġexam ples
opor osis
ovir us
Ġcorrec tion
Ġauto immune
luores cence
Ġte le
ace ae
Ġact ually
Ġinc ision
iaz ep
Ġd ro
Ġcons cious
am ycin
fact ory
ĠD a
op ausal
ĠG U
Ġb ud
ĠP F
Ġex clus
ĠCh inese
Ġtransf usion
ĠMETHO DS
AT ION
Ġmove ments
ir c
Ġcomp ression
Ġnam ed
Ġsy stolic
Ġint est
Ġl am
Ġdrain age
Ġloc ations
L e
ĠS M
Ġ199 4
Ġmicro tub
Ġocc asion
l ock
Ġenc odes
c omm
Ġassum ptions
m er
Ġal fa
Ġmal aria
Ġpoor ly
Ġmalign ancy
Ġpredominant ly
A K
Ġdep ic
k i
ĠRe actions
Ġtermin al
u x
ĠS F
ĠM g
Ġ6 7
Ġcons ecutive
ĠPub lic
ad her
av ail
Ġparticip ation
Ġdup lic
link ed
ĠRES ULTS
Ġcirc ulating
M B
Ġg iving
ĠPr ac
Ġread ily
Ġpro ven
Ġcont ro
Ġh ot
Ġsp ine
omet er
Ġcryst all
Ġspecial ists
m ann
gl uc
dim ensional
ri pt
Ġrec ording
ob acter
Ġdetect able
ĠD erm
Ġdep os
Ġlay ers
re me
Ġg ives
Ġchang ing
Ġidenti ty
Ġn ight
Ġhe par
a ut
ĠQu an
gen e
Ġhouse hold
Ġs or
Ġp unc
ophil a
ĠPl asm
l as
Ġover night
Ġmin d
Ġassess ments
t hem
Ġprot on
ĠE duc
Ġsim ply
Ġs aid
Ġ( >
ĠConflic t
ĠR em
Ġj us
Ġmes h
Ġv ital
ĠÎ ³
Ġcompar ative
Ġph yl
Ġcirc ulation
Ġelectr onic
Ġalign ment
r ated
ĠT ra
Ġco ag
Ġfibr illation
entis ts
A b
E X
ti um
ĠA A
ĠS DS
aryn g
adj usted
Ġassum ption
odyn amics
im ab
phil is
ak er
Ġ6 1
Ġsup ports
c y
- ,
Ġfluores cent
Label ed
izz iness
h or
m osp
pl ies
.. ..
ĠR o
Ġass ist
ĠEp idem
Ġfol d
Ġexce ed
Ġn ative
ritis h
os qu
ĠC ro
Ġex ception
Ġob ject
ĠM or
Ġwe bs
Ġcyt okine
Ġs um
Ġsc ar
Ġqu ad
ic ture
Ġimprove ments
Ġgovern ment
Ġover dose
Ġatt ached
Ġinadequ ate
iv ir
Ġgran ul
D F
Ġtemper atures
op rec
Ġsyn thetic
Ġackn owled
Ġexc ellent
Ġprev entive
Ġd ox
ĠS ection
Ġanti oxid
Ġsal iv
ĠCV D
Ġh old
Ġg old
ick ing
ĠC aus
Ġ9 4
GG G
Ġm ess
Ġad ding
ophys iology
Ġech ocardi
M e
Ġon es
n is
ĠEx pression
ĠHy per
Ġanti retroviral
Ġsub mitted
m embrane
Ġprote ase
Â ·
Ġus er
Ġeas y
od erm
ens in
Ġc ure
AT T
om ics
ox if
Ġsplic ing
Ġsepar ately
-- --
d os
ar v
tiv ation
ĠCS F
M s
ip s
Ġcryst al
ĠT TT
Ġro ute
Ġfl at
Ġcare g
Ġb ile
ig m
Ġchrom at
hydro gen
Ġp ort
Ġprom pt
c ase
Ġdi vers
U RE
Ġpl ane
Ġlymph ocytes
Ġmark et
Ġconsequ ence
Ġbi ology
Ġprocess ed
Ġbelie ve
Ġ ice
Ġrequire ment
Ġresp ir
Ġman age
Ġstr atif
Ġcomple tion
d omen
ĠB L
Ġsugges tive
e b
ĠEng lish
ĠPro f
arc oma
Ġstim ulated
Ġcent ury
Ġbarri ers
Ġstopp ed
Ġf ist
ove red
Ġfund ing
Ġtrans genic
t ail
ro tein
Ġabs cess
Ġsupplement ation
Ġmul tiv
Ġwar farin
12 0
GG T
Ġgo als
Ġpref erences
Ġorgan izations
ĠSumm ary
Ġn ine
ĠH C
d ata
at ous
ag ged
om ide
Ġman ip
Ġret rie
. âĢĿ
Ġun ex
Ġdec omp
h aps
Ġres olved
Ġsurge ons
Ġpl aus
Ġform ing
Ġantiv iral
ontin ue
Ġob vious
Ġenhance ment
Ġquick ly
Ġn urse
Ġery them
um ps
Ġper fusion
Ġread ing
hyd rate
Ġreli ef
Ġs ent
Ġdis semin
Ġaim ed
Ġp ure
Ġp sor
Ġmiss ed
i ans
Ġper me
bor ne
Ġprem ature
Ġpractition ers
i ol
Ġth rombo
ur ity
Ġcommun ic
di agn
Ġsimultaneous ly
Ġequ il
Ġwa velength
ĠM AT
Ġunus ual
Ġmed ial
ad emic
Ġle v
Ġph ases
ult ure
f rom
ol ve
olog ous
i ar
Ġindic ators
Ġembry onic
ĠAustr alian
Ġopportun ity
Ġconf ound
az ol
ĠPh ase
Ġad renal
Ġcent re
Ġfibrobl asts
Ġs essions
Ġne ither
Ġvir t
Ġmetabol ite
Ġopp osite
R D
ĠNa Cl
h igh
ic o
ĠY es
reg ular
ĠAn y
Ġcent res
Ġrecommend s
Ġavoid ed
h ttp
ĠA GC
Ġstr ict
Ġexc ision
Ġadvant ages
Ġpharmacokine tic
Ġdil uted
Ġdisco very
Ġvolunte ers
Ġcan al
B V
Ġm er
ĠI M
Ġcontrol ling
ant ly
adher in
Ġf a
Ã ¶
ul y
Ġpop ular
oper atively
Ġa ver
Ġreve al
ĠW il
Ġtheore tical
Ġtrans formation
Ġrang es
Ġoverl ap
Ġschem e
in herit
Ġimmun ization
Ġsummar ized
Ġelev ation
Ġknock down
ib er
Ġcom plicated
ĠI GF
n utrition
Ġcar til
ac char
ocl onal
ric hed
Ġdim in
Ġimmunosup p
b an
Ġpl at
Ġpl aque
Ġat mosp
ack ground
t ase
Ġ 000
Ġe ating
in ating
Ġhyper g
odial ysis
Ġm im
Ġe ukary
ĠS an
Ġsh if
Ġinter feron
U R
Ġpar ad
Ġcol itis
Ġdemonstr ating
ĠSh ort
Ġopin ion
ĠG G
Ġexper tise
Ġoxid ation
B I
Ġf lo
Ġsc anning
Ġathe roscler
h am
Ġcom es
Ġrec overed
Ġblock s
Ġepithel ium
ĠP L
ĠL im
Ġc utaneous
pre ad
ĠEx p
Ġrational e
ĠP res
opl asty
Ġvalid ation
Ġampl ification
M O
Ġ9 8
Ġul tim
Ġmuc osa
Ġcys tic
Ġtrans mitted
inf ection
itud inal
Ġ iod
Ġinter face
Ġimp air
ĠBl ack
Ġbab y
Ġrit uximab
h our
ĠAs ian
uc k
c ons
Ġes ophageal
oss ible
at t
Ġest rogen
Ġad mitted
ps is
Ġprescrib ing
P ediatric
P I
âĢ ļ
zym e
N ase
Ġf asc
ide o
AD E
Ġdrink ing
Ġp ay
Ġso le
e at
Ġpre ced
an o
ic ardi
Ġat oms
ear s
Ġsimilar ity
Ġevid ent
um ulative
ous ly
G R
Ġneut rop
id azole
Ġmon o
Ġvi ability
Ġdiff use
ĠAfric an
en h
p es
Ġ6 9
ĠAs ia
Ġdig es
Ġw estern
Ġintegr ation
Co V
Ã Ń
ul ates
u el
Ġform ulation
och rom
Ġheterogene ity
Ġ7 6
ĠIm port
Ġhypog lycemia
Ġgl omer
Ġsepar ation
osqu ito
AL S
ot inib
Ġgen ital
Ġinter s
Ġg ang
ple x
Ġsp ind
Ġdecl ared
: :
part um
Ġb urn
ent y
Ġcomb inations
O RT
Ġw arm
dos age
Ġcateg or
ĠPar ticip
ĠAustr alia
Ġscler osis
ĠB en
g ens
m ol
ple ments
ĠY ou
Ġantic ip
Ġing re
Ġappro xim
Ġpromot ing
Ġconcer ning
Ġab er
Ġdiff usion
Ġagon ist
if i
ĠE C
Ġun iform
Ġsc ope
L a
Ġbe am
Ġrecru ited
Ġdo ub
Ġma pping
Ġprec ise
Ġman aging
Ġcardi omy
Ġsupplement ed
Ġab domen
in yl
Ġpl anned
Ġ7 4
rec ted
Ġext ens
ĠB ritish
Ġtra ff
ustr y
Ġf ish
Ġhist opath
Ġz ero
ĠAC E
Ġconn ected
d a
at oid
Ġl oci
Ġve get
Ġveh icle
Ġas pect
Ġloc ally
Ġqual itative
ub in
Ġ8 6
Ġsevere ly
ophil ic
Ġfluid s
n ec
Ġm ap
Ġs hel
Ġh all
row th
ĠJan uary
Ġepilep sy
th reatening
Ġen able
ĠAN OVA
Ġmotif s
Ġball oon
ap ter
umb ar
ours es
Ġsusp ension
M E
Ġsup plied
Ġactiv ate
Ġquantif ied
Ġdi e
Ġob jects
ocarcin oma
ĠH er
am ate
Ġdex amethasone
Ġdys p
ĠP seud
otrop ic
t w
ast olic
Ġinterpre ted
def icient
Ġcolle ag
+ /
F L
re ening
Ġrelev ance
Ġd est
lec tion
Ġattach ment
ĠS ource
ĠPot ential
Ġd ram
Ġout l
Ġout patient
ĠHealth care
Ġembry o
ec es
Ġpap ers
Ġimmun ocompromised
ĠF r
ĠC ase
Ġmet formin
Ġrepro duction
Ġseiz ure
Ġeti ology
ĠS C
Ġext rap
k t
ĠV EGF
ĠBi os
Ġnan op
W h
Ġo phthal
ot rans
Ġper ceived
A s
ia e
Ġinterest ing
ĠSAR S
ĠM AP
it ol
Ġne igh
Ġeff ort
Ġfr actions
Ġinhal ation
Ġgreat ly
d l
Ġagg ressive
ol ate
ward s
ĠE LI
Ġd yst
ĠN C
ĠMod el
Ġcandid ate
app ing
Ġhel d
Ġrepresent ing
a uc
ro tic
Ġpro gen
Ġc aspase
ĠE ff
Ġper ception
Ġser ot
ĠB ar
year s
SA ID
Ġfung al
ast om
Ġexam inations
Ġequ ally
ĠPan el
Ġd izziness
Ġwor se
at he
Ġs ure
Ġblock ing
Ġregul ates
ar ray
ĠC alc
di ents
ĠAd ult
ke letal
Ġadi pose
âĢ Ĳ
ĠK ing
a phyl
och rome
raz ole
Ġview s
Ġmicro b
ides pread
st rand
ur ine
ĠP t
Ġindic ator
Ġform er
ĠA TT
iz er
ĠDise ases
Ġs ick
Ġbe g
op a
Ġreg en
Ġhepar in
S V
ĠD ros
ess ation
act am
ix imab
Ġhist one
+ ,
ĠM MP
Ġint ram
Ġcop ies
Ġtach ycardia
b as
Ġa ort
be ing
Ġincorpor ated
Ġj u
Ġoper ations
Ġresid ents
os tr
et axel
Ġst rom
ab etic
Ġinc om
ie tic
ĠA rab
Ġintrac ranial
ĠC yt
ĠDrug s
Ġfram e
ac ted
Ġg amma
Ġar ray
Ġch amber
ĠSyn d
ab an
Ġover view
Ġwork er
ER I
ĠIC U
Ġhy gi
Ġreduc tions
Ġoste oporosis
Ġall ergy
Ġgl i
ste ine
ol us
Ġgrad ually
Ġh ttp
Ġse psis
oc aine
Ġundert aken
ri le
ther n
Ġwork s
Ġproper ly
Ġtherm al
ĠIncre ased
Ġe ct
ion al
ĠIndi vid
Ġcom ments
Ġpref erence
Ġinter rup
Ġqu ar
Ġcaps ule
a vi
oc on
ĠH a
Ġstatis tics
ĠH DL
âĢ ł
pl er
Ġdem entia
Ġinser t
Ġsoci o
P H
p ol
Ġint ens
Ġcatal ytic
6 00
B A
ĠN AD
Ġangi ography
T emplate
or a
Ġgly cop
f ord
Ġch ance
ĠK n
Ġ7 1
ste in
ĠSci ences
s ec
ib rium
Ġle arn
ip olar
Ġrem ov
Ġread s
Ġprincip le
W e
t ent
ay er
Ġmax imal
Ġbreat h
ĠCaus es
Ġlim itation
ear ing
Ġdet erior
Ġide a
Ġ7 8
Ġneurop athy
Ġgest ation
Ġg ave
ve olar
ocyt openia
al so
ĠComm un
Ġpeak s
- (
Ġp pm
Ġcon v
ĠM ac
chang ed
Ġpre term
Ġc ourses
ul ose
Ġsc atter
ĠAn g
Ġantagon ist
ĠH LA
us hing
Ġsynt hesized
Ġuter ine
u ity
ĠRe port
ĠOrgan ization
Ġat ypical
Ġconstruc ted
Ġcont ents
Ġpar a
ĠCh ang
Ġreli ability
osyn thesis
ot ensin
ros p
ĠELI SA
v ation
ĠF ull
Ġcomp osite
CT T
Ġtub es
Ġdatab ases
ph ot
ĠSer um
plic it
Ad ult
ĠD S
ges tion
Ġplat form
Ġ7 3
In vitrogen
ons tit
Ġup stream
Ġext reme
Ġtechn ologies
Ġg rant
ĠC he
ĠC KD
Ġ199 3
radi ol
Ġin active
Ġintest ine
ĠB re
Ġexpl ore
Ġpancre atitis
ĠCanad ian
ĠT ime
Ġde hydrogen
Ġconsist ently
n als
Ġthor ough
ĠRh o
f il
il ization
Ġcolleag ues
Ġs ple
Ġth al
ĠT C
Ġcaus al
ati ble
Ġor d
ti tial
CA G
Ġvic tim
Ġanti gens
ym met
Ġ7 9
ok ed
Ġ ult
Ġp yr
Ġr ural
rex ate
u tis
atic s
Ġ* *
Ġpers pective
a mental
ĠTri als
Ġman ual
co b
Ġb or
ĠAn al
Ġapp oint
ĠCl in
Ġed ge
G M
a per
avir in
Ġg ut
ip itation
Ġw idespread
Ġcompar ator
Ġst ret
ĠO CT
art an
t arget
Ġex clusion
Ġprob es
Ġsw allow
ĠG r
acy cl
om ers
Ġ9 2
ĠC er
Ġag ing
Ġ9 7
CC A
ill us
ap ine
tif ied
Ġt un
Ġlabor atories
ĠM O
Ġmat ched
ĠHep atic
Ġc essation
ĠI ran
Ġmut agen
Ġpat ch
Ġpromin ent
Ġmon oclonal
Ġexpl ored
Ġtoler ated
Ġconstruc ts
Ġcont amination
Ġcriter ion
Ġput ative
ĠChar acter
i j
Ġc ame
ĠH M
Ġb ic
Ġg erm
u its
ab s
Ġrem ark
Ġobstruc tive
ĠJapan ese
it ors
ine phrine
Ġ8 4
ot rexate
ag l
Ġseg ments
Ġconver ted
armaceu tical
Ġth ym
umar ate
Ġcon clusions
ĠAd apted
Ġind ustry
wh at
one y
Ġmat uration
ĠM id
ri p
ad v
Ġfour th
lis hing
ĠL ocation
iven ess
Ġspe ech
Ġtest osterone
CR C
uk in
Ġm osquito
th at
S I
Ġd end
Ġbel ief
Ġintegr ity
Ġcop y
Ġreflec ted
i ative
Ġp il
unt ary
Ġnecess arily
re y
opo ietic
Ġconst rain
IC D
label ed
ĠVal ues
Ġmark eting
ĠC E
Ġregul ating
re vir
onse qu
section al
bl ock
Ġimplant ation
Ġsup plements
Ġf ile
Ġapp lying
Ġep ig
Ġimpro ves
Ġsuper nat
Ġregular ly
Ġphosph atase
Ġcorrel ations
Ġir regular
Ġper cutaneous
Ġorient ation
Ġf ig
ure us
es ophageal
id ium
viron ments
Ġrabb its
unc il
Ġnanop artic
ĠI tal
Ġphen otypes
Ġabund ance
Ġadop ted
ĠW hy
CT G
Ġgl ands
Ġgly ce
Ġfron tal
a imer
is p
j ug
v ari
ĠPro vid
ĠCom plications
Ġbe h
Ġadmin istr
Ġfl ap
raz il
i pl
M RI
Ġpromot es
in itis
ĠB io
ĠAn imal
ĠEduc ation
F R
st able
Ġalle les
Ġcarry ing
Ġc am
Ġref lex
Ġd ang
Ġval u
z in
Ġnew born
A MP
ĠS E
ĠP o
ĠW arning
Ġanticoag ul
W T
ĠS N
Ġinstit utions
Ġinsuff iciency
Ġswit ch
o tion
Ġsym met
Ġvacc inated
Ġlife time
ul itis
ĠB D
ĠAn tib
Ġleg al
A m
oc ellular
Ġgreat est
re w
al pha
ch a
Ġme al
inf or
Ġam yloid
uit ary
Ġgir ls
Ġcon d
est he
Ġ8 8
Ġdis app
Ġdi oxide
Ġ8 3
ĠH D
Ġexc lude
Ġprior ity
Ġac ademic
M ed
Ġf aster
ĠN M
ĠQual ity
Ġse arc
Ġrec t
Ġab ortion
Ġadv ance
Ġind ust
Ġsqu amous
Ġmethod ology
oscop ic
Ġwind ow
Ġsuic ide
ir ubin
und red
rough t
Ġrepresent ation
Ġslow ly
I g
he res
ĠB M
Ġster oid
ĠM L
Ġelectr ons
T OR
per itoneal
ĠDros ophila
id ge
ur on
ĠG ram
ĠAb brevi
ĠStand ard
Ġdim er
or th
Ġfor ces
Ġpre dis
Ġpath ogen
ĠPro gn
Ġplaus ible
Ġsign alling
urg ical
ĠSurg ical
Ġnerv es
es ts
Ġbe gan
Ġmulti disciplinary
ĠFact ors
' t
on o
en in
othe rap
Ġhelp s
Ġcontrib utes
Ġmagn esium
or r
ĠP en
Ġs ti
Ġ( âī
Ġprec autions
Ġcouns eling
Ġcartil age
4 50
Ġb rown
ĠG A
Ġdep osition
Ġexcre tion
chym al
Ġpos itively
k ing
n ucle
n i
ĠClass ification
Ġinstr uments
rol imus
CA M
f ield
ĠL ife
Ġcys ts
Ġacknowled ged
Ġtrans form
Ġfron t
Ġdi vision
Ġevent ually
Ġca rotid
o ice
Ġ8 1
Ġdoc tors
ad ministration
Ġper m
Ġar ri
ĠTr is
ĠIndi an
amp s
b ec
Ġin oc
ĠF L
Ġinc ident
ch ron
Ġdem and
ĠS R
Ġhome ostasis
Ġprepar ations
E CT
a ved
in jection
Ġpro v
ĠSynd rome
_ {
ĠC onsequ
oc ular
Ġanti psych
Ġadequ ately
Ġampl itude
P G
w ater
ĠT oxic
os ocial
ĠA MP
Ġmo od
Ġa ureus
Ġprom ising
Ġdescrib es
Ġcompl ain
k a
Ġdehydrogen ase
op hen
ĠIm aging
Ġdefin itions
Ġd ur
Ġper f
our nals
Ġco ol
Ġj ob
A r
Ġ201 4
Ġre porter
L Y
Ġdec ades
Ġproper ty
Ġcri tically
Ġirradi ation
ec e
Ġconstit u
Ġbab ies
g reen
ĠP G
ra ine
Sup plemental
ĠL a
Ġb ands
ce phal
Ġepis ode
or p
Ġh ol
th rough
ong ue
Ġaltern ate
ĠThe ir
ĠSc reening
Ġaccur ately
p oints
Ġid i
Ġdemonstr ates
ĠC ong
Ġat tit
Ġreflec ts
Ġcoup led
Ġb order
ĠCO N
ro zen
Ġsecond s
Ġchain s
ad a
Ġneu rom
ĠG ender
ens is
Ġlip oprotein
gl ut
201 0
que ous
s qu
id ential
ĠSch ool
pat hetic
Ġs ociety
Ġcho lec
Ġperson ality
lys is
Ġes ophag
Ġfem oral
as tric
il le
Ġcontain er
Ġincreasing ly
c c
re ported
eres ts
C a
Ġmod elling
Ġfe et
Ġsp in
k er
Ġper itoneal
Ġmeas les
Ġpul s
F DA
hes es
Ġ199 2
Ġspect rom
a ult
ĠB MD
Ġcomorbid ities
Ġex ons
c he
ĠN SC
Ġsch ools
hyd ration
Ġrecomb ination
i atic
Ġt rem
id ase
em por
Ġmuc osal
) /
Ġhyper troph
Ġmax im
1 50
di al
ĠStud ent
app ropriate
Ġconflic ts
Ġsple en
re te
Ġmin ute
Ġlong itudinal
p tic
od il
Ġar ise
P s
Ġpancre as
Ġr ights
âĢ ¦
Ġcapt ure
ĠP ain
Ġsub mission
Ġel ong
Ġrevers ible
e v
Ġdes ired
Ġimpl ants
Ġdivers ity
is ations
ĠV i
Ġpotenti als
Ġcatal y
Ġp yl
ĠM arch
Ġag encies
Ġtox in
Ġdors al
Ġmo ving
Ġdoc etaxel
Ġdil ution
Ġoc clusion
ĠDi rect
ĠSub sequ
Ġevolution ary
Ġpurch ased
os ts
ĠH z
reg istration
Ġfund amental
n on
tr action
Ġ9 3
Ġthor acic
Ġf ear
ail s
Ġcar bo
Ġw el
ĠB razil
Ġb is
pub lished
ĠH el
ĠL ocal
hy pert
ĠNum ber
ec onomic
Ġelectro ly
8 00
Ġwors ening
l ight
r acycl
ĠT M
Ġscre ened
Ġmob ility
u ous
il ed
Ġhygi ene
ti ary
Ġab str
s cription
ĠC max
Ġtransf ection
ol a
, "
Ġmamm als
p e
an i
Ġl umbar
ot ine
Ġ8 2
ke y
Ġan c
ĠCom b
Ġcis platin
Ġsubt ypes
Ġk Da
ra ight
Ġgen omes
ĠCo uncil
Ġd ent
ĠWh ite
ad min
Ġun f
ot ted
Ġsup plementary
Ġsyn aptic
Ġinvestig ators
amp in
Ġanat omical
ĠN ucle
ĠG er
Ġpropor tional
id ing
S igma
Ġdi ag
Ġelectro de
jec tives
yc ycline
Ġsimilar ly
Ġupd ate
ot ting
Ġdi p
Ġdi ure
Ġgen otypes
Ġdistrib utions
Ġadoles cent
Ġsc al
Ġpr ice
ĠDos ing
Ġdiagn oses
ov ine
Ġsens or
Ġmicro organ
O F
Ġp up
ĠT rial
Ġperfor ation
ĠN atural
Ġintr insic
Ġseas on
Ġc umulative
Ġan k
Ġgra f
Ġendoscop y
ĠS uccess
Ġdec ay
Ġop tic
Ġdep ressive
ĠSup plemental
hydro xy
Ġbran ches
ĠSecond ary
Ġtransl ocation
Ġprev ents
om fort
Ġcoord ination
Ġinc ons
unc ed
Ġco vers
Ġen rich
ER S
k ern
Ġdet ecting
Ġl if
Ġadv oc
ĠSe qu
pr ising
lip id
Ġdog s
Ġw ant
Ġspl it
ĠSci entific
f ont
i at
ĠC re
ĠJ une
crip tions
E B
Ġsurv iv
Ġquantif ication
Ġspind le
ĠQ ues
ĠY our
Ġide al
ĠId entif
Ġc red
ug e
ĠE F
Ġwa it
Ġby pass
ĠB C
ne ys
Ġcalc ulate
Ġexist ence
Ġsed ation
Ġbond s
Ġvalu able
Ġdem ographic
Ġs ession
__ __
re lease
al imumab
Ġf umarate
Ġb ring
Ġinhibit ing
fact or
Ġ( Â±
Ġvol umes
ĠRep ro
Ġacet yl
Ġsatisf action
ĠD P
Ġint erests
Ġve ins
ĠT LR
un ter
cell s
Ġaspir ation
b p
Ġa ug
od iazep
Ġpl ans
Ġcircum f
Ġn ose
Ġrec tal
Ġmorph ological
Ġethn ic
Ġh undred
ĠL ip
Ġsynd rom
Ġsubstit ution
Ġ9 1
Ġrem od
Ġemploy ees
sp ring
Ġstopp ing
Ġen vironments
ĠN D
AT G
+ )
Ġd ens
ve y
Ġg ram
200 9
Ġpreval ent
Ġmarg in
anal yses
x ia
Ġb iliary
Ġ ï
Ġr ating
om on
ĠIn hib
ĠB ox
ĠR ab
Ġmal nutrition
ĠLo ok
Ġend s
Ġcorrec ted
Ġure th
Ġp ip
Ġe lic
Ġtrans membrane
Ġchrom osomal
Ġsil ic
ĠPharmac okine
Ġo sc
Ġeth ical
Ġhorm ones
Ġcon formation
uc id
ĠR EC
ĠM edi
Ġha pl
Ġobs erve
Ġdiscuss ions
n d
Ġbiomark ers
ĠC RP
ĠI T
Ġimmun ohist
Ġrecogn ize
Ġsmok e
% -
Ġv ectors
Ġstud ent
ak ers
L s
m o
ed ded
Ġmarked ly
Ġincom plete
tr act
he imer
Ġcon duction
Ġneg atively
Ġd ust
ĠT op
is her
ĠL ibrary
Ġdes tr
Ġtrig lycer
Ġoc ular
ough t
ast ing
erg ies
Ġradi ograph
ult y
Ġob st
Ġadv is
ĠP AR
ome gal
Ġnucle otides
Ġdifferenti ate
Ġdisrup tion
et a
Ġcult ural
Ġpublic ations
sub scription
Ġb ones
Ġen riched
Ġaort a
ĠM ic
ĠIm age
Ġfeas ibility
Ġm om
Ġextens ively
a ments
ren ch
ree k
os ity
duc t
Ġsc ales
ĠS ingle
Ġt ongue
ĠN R
row s
lit axel
ep s
Ġsc ans
Ġchalleng ing
Ġa queous
Ġdis p
Ġen ab
Ġlab our
Ġ8 9
Ġprec ipit
Ġcandid ates
Ġgest ational
ĠPrec autions
ĠConsequ ently
N s
Ġam p
in ase
Ġhab it
k en
ĠM ark
ne al
ograph ics
Ġsym b
Ġdevelop s
Ġ8 7
ĠDec ember
pl astic
Ġmalign ancies
ĠExper im
Ġwid th
Ġserot onin
ib ular
ĠB rand
Ġm ast
Ġglyc os
Ġt RNA
Ġd y
ĠH g
ĠNurs ing
ag ic
Ġbu ild
N H
ĠA CT
spec ified
Ġelectr ic
Ġparen tal
Ġchemical s
Ġl amin
ĠV it
ĠN SAID
Ġmod alities
ĠAc kn
Ġper in
Ġgly cer
Ġdim ensions
ĠAL T
Ġinf l
AT CC
Ġ199 1
Ġcaps ules
ĠMAT ERI
r ite
ost omy
12 5
rect omy
AS T
AA G
V I
h aus
Ġod ds
Ġap ical
Ġcomplex ity
hythm ias
Ġf ine
Ġattemp ts
Ġparticip ant
Ġ10 6
ES S
Ġcarri ers
' .
Ġa part
ant um
abol ic
ĠSe pt
Ġemerg ing
Ġdefin itive
Ġutil ized
Ġcorrespond s
O G
ĠM M
Ġman ag
Ġend point
cell ular
Ġde generation
il ing
if lo
ĠV er
ess ive
ĠAc tion
Ġclass ical
to ber
Ġt ension
Ġf elt
ĠE v
ores is
ĠParticip ants
Ġspl ice
ĠA re
Ġpro ce
ĠPos itive
i otherapy
ign ificant
Ġorig inally
ol ol
Ġdis pers
ĠO s
ĠZ e
Ġoper ative
iflo zin
ĠL M
tip ation
Ġantioxid ant
Ġrec onstit
Ġmeth otrexate
Ġinter acts
ron ate
Ġcomplement ary
Ġattack s
Ġf o
oc he
Ġdis pos
Ġper haps
Ġhand ling
Ġrespond ents
ĠT P
ol one
ĠL T
Ġiniti ating
Ġdesign ated
rogen ic
ĠHe La
ĠTechn ology
ĠA M
K O
r is
ro at
Ġre infor
Ġn as
Ġwe b
Ġabsorb ed
ti te
ĠG H
Ġhypox ia
r d
v o
Ġn a
a ud
Ġc ig
oth ing
Ġestim ation
ĠAt las
Ġinterf erence
p i
oe a
Ġn oc
ud es
Ġsp an
Ġconf ig
Ġelse where
adv ant
Ġwebs ite
H P
ĠC entral
ĠF orm
ri tic
Ġsy philis
Ġachie ving
Ġt ry
Ġst ake
ĠTh at
Ġblock ed
Ġster oids
Ġcorticoster oid
Ġinfil tration
t te
en n
is is
ot ed
Ġlob e
ĠS ocial
uc ifer
ĠP art
ub icin
Ġun changed
Ġautophag y
Ġaccess ible
Ġan astom
Ġint en
ĠApp endix
in ates
ĠM ax
GG C
Ġcycl in
Ġ {
ĠC AC
ĠS ix
Ġper mission
Ġbec oming
orph ine
v ac
ĠN T
Ġcomp ut
ĠG y
ĠAc cess
Ġhem odialysis
Ġhospital ized
id one
Ġglyce mic
Ġend ocrine
ot echn
Ġsecre ted
Ġampl ified
ĠOp en
ly m
Ġmo tility
Ġtri ple
cept or
Ġauthor ities
Ġmob ile
Ġh im
ĠE qu
dic tion
Ġac ting
Ġsome what
ĠR R
pr il
Ġbeh ind
ĠCro hn
P ro
Ġse eds
pec ific
Ġap optotic
m at
es are
ĠSt orage
Ġins urance
ill er
ĠMeas ure
Ġd ye
op rol
Ġdraw n
ĠV ir
Ġquantit y
Ġt ag
Ġst raight
ĠO l
Ġregul ator
Ġabund ant
âĦ ĥ
Th is
t op
Ġoff spring
Ġlig ands
ow er
if orn
Ġdirec tions
ĠPrac tice
ĠE st
Ġcyt ometry
Ġneuro de
ĠEpidem iology
Ġneutrop enia
tr al
Ġem pt
Ġs uture
ati d
s ensitive
Ġinfil tr
ĠIn d
ĠDis cl
oz o
Ġalgorith ms
Ġis ot
Ġdi astolic
Ġperiod ontal
Ġver tical
Ġtrig ger
Ġrespond ed
atur ally
ĠL iver
Ġcontin ues
p y
Ġk b
Ġresc ue
ro d
Ġbe ads
agl iflozin
s ize
ag o
ĠV is
Ġpol ys
Ġelec t
Ġro ugh
du ate
Ġcalc ulation
co ated
ĠRNA s
1 10
Ġin te
Ġat rophy
00 2
Ġde ad
Ġmusc ular
Ġrib avirin
Ġkine tics
Ġpost partum
N V
T I
Ġcon ven
od ef
Ġmo ist
Ġempir ical
Ġregard ed
Ġexpand ed
ber t
AC E
atur ated
GG A
ĠT alk
ĠS ex
Ġclin ics
ĠMechan ism
Ġcon dom
Ġ8 00
Ġmic roscopic
Ġfav our
afen ib
i ant
Ġc ef
is tics
Ġlip ids
ĠAl z
Ġbo ok
Ġneon ates
Ġadapt ation
h r
s in
uct u
ĠWe ek
Ġdist ant
Ġl ith
Ġreg istered
ĠM at
Ġequil ibrium
S m
h ospital
Ġsim ulation
Ġbox es
ĠDerm atology
d el
ĠA CC
ĠS kin
ip rof
Ġ19 80
Ġidi opathic
Ġsecre t
he ne
Ġr ace
Ġcontinu ing
ĠPri or
Ġcontro vers
ĠC and
ĠS O
Ġprevent ed
stand ing
Ġspecial ized
it ect
ĠC G
od ds
Ã ¼
Ġepidem iological
p H
B B
Ġwas te
ĠNSC LC
Ġter tiary
Ġten ofovir
Ġartif icial
Ġhar ves
ĠT a
tit ative
ĠCh IP
Ġconj unction
ig er
gen erative
Ġul cers
Ġrabb it
lic es
Ġconcern ed
on ly
Ġg rap
Ġp ages
Ġpredic tor
he p
Ġo s
Ġad apted
Ġcomm ission
men opausal
Ġultim ately
Ġoff ers
Ġsuff ering
or ad
Ġmicro bial
ĠG TP
Ġro ots
Ġmit otic
Ġves icles
Ġinst ability
or f
Ġg ins
ĠS W
ĠExam ples
ot a
Ġ1 10
exp ressing
esare an
Ġcl ients
Ġsmok ers
Ġsyring e
os ol
Ġsens iti
ĠSw ed
ĠAbbrevi ations
Ġt rop
Ġas ymmet
Ġkid neys
Ġventric le
00 5
Ġcons ervative
ill a
Ġbiop s
Ġcapt ured
Ġdefic its
ol ving
ĠM olecular
Ġselec t
AB A
Ġir re
ĠJ X
Ġmen str
Ġhazard s
Â µ
Ġincre mental
Ġel ucid
atin um
ĠCo uns
Ġnam ely
ĠCardi ac
N D
Ġcl im
Ġrepro duc
ĠTh ose
bu vir
Ġb up
Ġsh aring
ĠR ap
Ġsol vent
Ġrheum atoid
Ġdisc ontinue
Ġcharacter ization
wh ite
os buvir
Ġass ign
Ġatt end
2 000
p in
Ġcop per
aryn x
Ġint oler
ap tive
Ġ10 5
let on
ĠSub jects
ird s
Ġc ust
op es
Ġconsider ably
Q U
i able
ro us
ĠW ater
200 8
ĠS G
ĠG astro
ĠAd j
Ġcontamin ated
Ġpsych osocial
Ġsyndrom es
h i
Ġconf idential
ĠComp ared
Ġfund ed
Ġlaw s
Ġinc id
Ġcomm it
Ġcoup ling
ar rh
Ġst ock
Ġlim iting
m y
ag ue
Ġcl ient
Ġrel ie
ici ents
her n
Ġhypot hesized
sh aped
ant a
e ties
m bl
r ical
ol in
Ġgeneral ized
Ġplasm ids
Ġinters titial
a it
ĠM ar
CA A
ĠAlz heimer
A like
oc ortic
Ġad alimumab
ĠIm pro
Ġauthor isation
ĠFran ce
cep tions
clus ive
g uid
Ġt alk
Ġflu x
Ġhepat ocellular
US ION
A ld
ĠB el
pro t
Ġswit ching
ĠCurrent ly
ĠOc tober
N K
ĠDis orders
Ġvisual ized
Ġaden ocarcinoma
ucifer ase
ĠA ug
Ġre tained
of luorescence
Ġpor tal
Ġconscious ness
. ).
ĠC B
Ġres usc
Ġtren ds
om nia
Ġth roat
iforn ia
ĠF ive
Ġmod er
Ġsqu are
Ġdop amine
ĠI G
ry st
ĠEx amination
Ġcyt otoxic
Ġad di
Ġheterogene ous
ĠA DA
Ġ1 01
Ġwas h
ĠM ale
Ġcontrib uting
Ġharves ted
1 000
Ġar gu
Ġpost natal
ĠEx t
Ġchem istry
Ġprincip al
Ġunivers al
ram ine
Ġphosphory lated
r p
Ġw et
Ġr ules
Ġinc ome
Ġher n
ves tig
ĠC och
ĠR V
orr hea
Ġpro phylactic
Ġang ina
Ġp ore
ĠIniti al
ĠFIG URE
Ġpall iative
ĠP SA
Ġhyperg lycemia
Ġenrich ment
iprof loxacin
Ġb und
ac il
ĠU TR
ĠCons id
Ġdri ve
Ġun stable
Ġthromb ocytopenia
i op
ac id
Ġinterf ere
Ġan ten
ĠP erc
ĠN i
rain ing
Ġarrow s
ĠI CRC
og lyc
ĠG O
Ġag o
ec l
ĠN et
omm on
sor ption
Ġwar ran
Ġb ipolar
Ġanaly ze
Ġexclus ively
Ġs aturation
Ġbil irubin
Ġcontracep tive
Ġchromat ography
ib ilities
we ighted
IT Y
on ography
Ġde form
Ġthrombo emb
ĠProgn osis
Ġre act
Fig ures
Ġfl uctu
ĠB rief
Ġcontr action
hold ers
ĠWith in
ĠD ay
Ġtrans p
Ġform ulations
Ġinflu ences
Ġclin ician
ĠApp roximately
or ous
ĠC ost
Ġstrong er
Ġmicroorgan isms
g ment
Ġm ol
Ġr acial
ph one
Ġhorm onal
Ġblot ting
ĠCd c
Ġst aging
Ġmet all
Ġcoeff icients
Ġencour aged
P AGE
Ġpregn ancies
Ġfore ign
Ġr ich
Ġhe x
Ġcho ose
Ġscenari os
ĠM ain
admin istered
Ġext end
ĠAdv ise
Ġextrap ol
ĠMATERI ALS
ad ine
Ġdis advant
yt oin
Ġmicro g
ĠPC I
Ġsci entists
Ġdatas et
Ġas tro
Ġgen us
ep endent
Ġdisc omfort
ĠA IDS
Ġur gent
ĠInf ection
Ġult ra
00 4
ĠICER s
Ġdisturb ances
es ides
ĠG lob
Ġam mon
Ġte aching
ĠChang es
Ġc as
Ġp icture
Ġf ing
ĠCal ifornia
t agged
Ġcyt ochrome
Ġkin ases
Ġepiderm al
Ġin deed
Ġinf er
Ġdam aged
CL USION
Ġpyl ori
ĠF er
Ġposition ing
Ġpolymorph isms
ro om
Ġcomp an
Ġgra y
Ġneu ros
Ġdys plasia
c adherin
y te
Ġis lets
ĠC CC
am el
ĠJoh n
hypert ensive
Ġf illed
ĠV I
RA F
lam y
, âĢĿ
s ite
ast uzumab
Ġdiff ers
termin us
Ġmening itis
Ġcit rate
ĠF rench
Ġconf usion
Ġaim s
Ġf rozen
Ġ18 0
Ġpro c
ĠMD R
ĠPharmac ology
Ġderm atitis
Ġanat omy
r action
an z
Ġd ried
oper ation
Ġcoag ulation
Ġat om
ĠN ormal
Ġtrans pl
Ġterm ed
Ġ ign
Ġd ia
Ġn om
Ġdec ided
Ġparticip ated
Ġknock out
Ġmig raine
Ġharm ful
is c
ĠS Y
Ġfil tration
Ġa rom
ĠT en
DA C
of ib
ĠAb out
Ġtraum atic
Ġp aired
ĠG M
Ġit em
Ġat trac
Ġinter mit
rep eat
A c
Ġ ile
us ing
her ited
te en
Ġmat hematic
Ġa th
ons et
Ġmod ulation
ĠCh rom
Ġmicro array
Ġappropri ately
Ġpit uitary
ĠD V
ĠSt aphyl
vac izumab
Ald rich
Ġolig onucle
oblast oma
+ -
Ġm ir
tim al
Ġechocardi ography
Ġb ovine
Ġmodel ing
Ġlink age
Ġantagon ists
Ġ- -
Ġper mit
Ġover come
) )
Ġn aturally
am a
og rams
ĠY ork
f en
ĠA pril
bl ue
Ġflex ible
Ġcann ab
Ġ ;
Ġv ideo
Ġstim ulate
Ġagon ists
ĠM H
ystem s
ĠKing dom
Ġpoison ing
Ġscatter ing
ĠM other
ĠH O
ĠM en
Ġsp ut
tid ine
ct omy
ĠPost marketing
ĠSept ember
e z
Ġc odon
Ġsurve ys
nec ess
Ġpal p
ether lands
ĠS L
val ence
ord s
Ġlead ers
i tic
of il
ene tic
tric itabine
Ġpass ed
id omide
Ġprot ected
Ġsc ored
Ġsulf ur
og ether
h an
iv udine
Ġverte bral
Ġmultiv ariate
ung al
p ad
trans ferase
201 1
ĠGene tic
Ġc asc
ĠEn s
F s
r ates
ĠC ap
Ġsh arp
Ġcons tipation
unc tiv
m ut
uc as
Ġhydro ph
Ġana esthesia
ĠEd itor
ĠBas eline
Ġin activation
Ġinst ances
c oding
un ately
ĠS olution
ost atic
Ġform at
Ġlink s
Ġax ial
Ġelim inate
Ġpredict ors
ĠM C
bl adder
Ġcorrel ate
yn ec
Ġubiquit in
os c
Ġelectro des
Ġcreat ing
âĦ ¢
am ines
Ġconc lude
roc ytes
Ġhyper plasia
Ġcontrib utions
Ġ umb
ro te
ĠA U
Ġcl ones
Ġanaly tical
Ġfist ula
w as
Ġs ought
Ġv asc
ĠGR ADE
lec ted
13 0
Ġf air
Ġj oints
Ġaut osomal
ĠPh ot
Ġaneurys m
p o
ĠG T
Ġlog istic
Ġdiscrim ination
Ġnanopartic les
ĠD op
ĠRet urn
Ġjud ge
Ã Ħ
Ġur ban
cep ts
for ce
Ġsupp ressed
Ġcontracep tives
ĠIn troduction
ĠC ross
Ġref lux
ind ependent
ellow s
V C
Ġv entral
et ary
Ġneur on
ĠNe gative
m atic
Ġa w
it ations
Ġover weight
amin o
Ġrecogn ised
Ġglut amate
ab ric
Ġle uc
ĠCent re
an ium
di abetic
Ġpre lim
Ġtend ency
Ġrecip ient
p G
et te
Ġcomp artment
vis ions
Ġfavor able
al d
Ġal veolar
Ġnum er
Ġhar ms
Ġnod ules
un k
Ġsim pl
Ġpneumonia e
Ġg rain
ĠM el
Ġac uity
Ġsub s
ĠV ol
Ġpur ification
Ġdri ven
H I
Ġp ix
Ġactiv ates
Ġsuff iciently
Ġunc ommon
Ġhighl ight
2 50
Ġs ul
Ġqu antum
Ġtr unc
CA C
AC S
Ġfung i
ĠSign ificant
ĠPharmacokine tics
Ġint ense
Ġpr one
ĠImport antly
tw o
ĠN etherlands
Ġimm ob
Ġopportun ities
c a
ud y
ĠM em
Ġshor ten
Ġ12 5
Ġadj unc
Ġher pes
Ġbiops ies
it a
Ġsub jective
out hern
Ġdepart ments
u ro
stand ard
ĠCol l
Ġsuperf icial
Ġr hythm
Ġass ume
ĠComp atibility
Ġmeth anol
ĠJ ournal
an us
Ġf inally
ur l
Ġconstruc tion
im en
Ġar bit
Ġdiagn ose
ock et
Ġoutl ined
ĠH ER
ad ic
ĠU r
Ġtrans duction
Ġimmun oprec
b a
Ġt ib
Ġs por
ĠG o
Ġpain ful
Ġper icardi
Ġcap illary
Ġconsist ency
l a
Ġreve als
Ġcarri er
ĠG al
Ġpl atinum
Ġlum en
ĠSt ore
con jug
on ide
ĠT er
Ġbr ight
Ġb ath
ul os
rom ide
ĠIn dex
Ġce phal
Ġpl ots
Ġbeg ins
ĠG L
Ġreg istry
Ġiniti ate
Ġpan els
Ġv an
ĠChem ical
Ġcareg ivers
m ber
Ġch ond
Ġch arged
Ġes c
Ġtel om
Ġantidepress ants
t ur
Ġf ri
Ġn ull
Ġun a
Ġhaem orrh
gu inal
Ġvulner able
Ġanticip ated
utis m
Ġanti f
Ġro tation
Ġmod ality
Ġexam ining
Ġtra its
Ġmetabol ized
CS F
ops is
Ġwe ar
Ġcompr ised
Ġprelim inary
Ġelim inated
Ġbenz odiazep
Ġoccasion ally
Ã ¡
tim ate
Ġte ams
Ġpsor iasis
Ġcontrovers ial
b rain
he x
Ġre ar
ĠO SA
yl ate
Ġimmun odef
Ġpath ogenic
Ġparen teral
Ġsc oring
ĠmRNA s
Ġcy an
Ġb us
Ġag ar
Ġmom ent
ĠG reen
am ins
roph ic
Ġdiss olved
W L
ĠN DC
ĠB cl
Ġcorrect ly
Ġinstitution al
ution al
resp ons
ĠPers ons
a und
ĠCD K
Ġple ural
Ġdu od
Ġinduc ing
Ġm urine
Ġh r
Ġph ag
f amily
ĠG GT
est ing
ĠSt rept
app roximately
Ġex er
ĠU C
bl ast
Ġmagn ification
Ġm TOR
ĠC op
omes tic
Ġeff iciently
Ġarbit r
ĠM HC
ĠCont rain
he t
ĠM ass
oth iaz
of l
Ġess entially
otechn ology
ĠH u
Ġj ournal
ĠRep resent
lyce mic
Ġexact ly
ur is
line ar
Ġmat ch
Ġter at
arth ritis
Ġdestr uction
ove mber
auc oma
in ery
Ġde al
Ġserv ed
ĠSm all
ot er
Ġres in
tiv ated
Ġmit ral
ĠED TA
y o
sm all
cat enin
Ġin herited
Ġexp ensive
on ium
ol uble
Ġblock ers
Ġhoriz ontal
Ġindust rial
Ġpredic ting
ĠToxic ology
t em
ĠC le
ĠPharmac odynamics
azep am
ol izumab
Ġl ists
ici encies
Co A
Ġoutbreak s
b earing
Ġex plicit
Ġperiod ic
Ġphen otypic
Ġun necess
ish man
bl ack
Ġatmosp here
Ġg ing
ĠJ uly
Ġ201 9
Ġemerg ence
Ġangi ogenesis
l ist
Ġb ases
le ukin
ĠP hen
ĠH T
Ġantib acterial
ĠÂµ l
Ġ( -
Ġ1 30
Ġsc aff
Ġra w
Ġsupplement al
Ġcheck ed
Ġin appropriate
Ġreconstr uc
ĠP ur
ĠB ody
Ġpr ono
Ġf if
Ġbo ard
Ġb ag
form ations
ash ion
Ġmeaning ful
Ġelectroph oresis
Ġs pp
Ġ198 9
Ġhemat opoietic
Ġirrit ation
Ġst rept
ĠE V
Ġabnormal ity
ĠStaphyl ococcus
Ġcor neal
NP s
Ġparas ite
ĠMut ations
avail ability
ti ated
Ġacc id
Ġunc ontrol
Ġendomet rial
om orph
et ermin
al a
ĠT y
ophil ia
Ġtempor ary
ti a
ĠAD P
] )
Ġwas hing
EN TS
Ġrepe ats
Ġcr isis
M ethods
lec tive
Ġsub m
Ġfib rin
ĠPark inson
ĠPr EP
Ġsil encing
Ġgang l
Ġim atinib
Ġvi able
Ġapp rec
Ġmass ive
Ġquan ti
ĠImmun oglobulin
Ġsti ff
Ġrel ating
ĠOn t
ic lovir
ĠT E
ip ine
o ic
at ation
ĠH om
otyp ing
Ġtrim ester
Ġm ent
ĠMin istry
Ġcollabor ation
Ġingre dients
us es
ĠC AD
Ġreg ulations
miss ions
ĠA lex
ĠD O
Ġg em
ĠP ackage
Ġfil ters
200 7
Ġacco unted
Ġrest ing
Ġconn ection
Ġosc ill
Ġper oxide
Ġcl o
Ġverte br
ĠKe ep
plic ate
resp onse
Ġ iv
Ġc amp
Ġbr ach
Ġoverex p
Ġinn ov
Ġaggreg ation
Ġt ables
Ġre tic
Ġhel ix
er ies
Ġp em
ĠP U
aterial s
Ġpref eren
ĠPM ID
ĠEff icacy
ĠN il
} {
ĠIn vestig
Ġins ight
Ġeng agement
Ġsim ulations
Ġpol i
Ġpredic tions
ĠOc c
Ġtrache al
Ġp ull
Ġdis placement
ĠW est
ĠG ST
Ġmod est
Ġsem i
Ġanomal ies
c arb
Ġrel atives
Ġinte g
on itis
Ġan ch
ul ator
ĠB MP
Ġwe igh
Ġdep ri
Ġmonth ly
Ġhom ology
Ġderiv atives
Ġansw er
cob acter
Ġsput um
c yt
h uman
ar abine
Ġh arb
Ġencour age
ĠCouns eling
Ġf i
ul ence
ĠI r
Ġal igned
IC U
hel p
Ġwound s
Ch ief
00 3
Ġper oxid
is hes
Ġb rad
Ġreach ing
ĠEm erg
ĠM it
ograph ical
b and
ĠD ig
ĠQues tion
S O
ĠâĢ ¢
Ġfamil iar
Ġstake holders
b ar
Ġf ashion
us ting
Ġst at
ĠS ide
por ters
Ġsub type
ĠTable ts
Ġhypert ensive
G B
Ġl ac
Ġrem ote
g ar
ec k
ĠM eth
Ġactiv ating
Ġneurom uscular
Ġ ip
Ġto day
Ġreturn ed
Ġdepic ted
d ri
Ġconcentr ated
Ġintravenous ly
Ġpolymorph ism
er ally
ĠS igma
Ġinter c
Ġdes irable
Ġquestionnai res
ĠE arth
ĠW he
Ġser ine
ĠDifferen t
c alled
ĠT CR
Ġdec ade
Ġparticip ating
Ġneigh bor
r ating
os us
ĠD iff
ĠG ra
Ġadv ances
ĠResp iratory
Ġin guinal
Ġre vision
Ġpro ved
ult ural
Ġsp ir
Ġfig ures
Ġre place
Ġepid emic
Ġattemp ted
Ġs and
ĠI CD
ran dom
iv ol
Ġund eres
ĠCoch rane
Ġfluor ide
Ġp ent
ĠT ake
Ġr ice
Ġsyn th
ĠUl tras
K L
n es
et in
Ġillness es
Ġtraff icking
Ġintram uscular
Ġw t
ĠI ll
ĠD en
Ġmach inery
ĠC y
ole t
ĠSup er
reng th
b irth
Ġb ub
Ġth reat
Ġfl ank
Ġorgan isations
Ġengine ering
ed ical
as ms
ĠF ed
ox ygen
ĠUn like
ĠPh osph
Ġinh aled
Ġsurviv ors
Ġneutroph ils
Ġc odes
Ġw aves
Ġb olus
op ress
ĠR ace
Ġrelax ation
Ġf ulf
ag ia
Ġar g
oph yl
Ġcontinuous ly
S E
ĠC AR
Ġ201 5
rolog ical
ĠInstit utes
Ġdri ving
rog ens
Ġg yr
ĠA PC
Ġel astic
Ġbehaviour al
H F
Ġex haus
Ġprec ision
ĠContrain dications
U n
ain s
ffec ted
Ġintervention al
ĠR O
Ġcontr act
Ġsuperv ision
ĠLabor atories
" )
L V
Ġexp on
omer ase
Ġarch itect
v acc
iver y
Ġf ores
Ġpower ful
ĠEth ics
Ġhomolog ous
Ġmach ine
F T
al b
om pl
ut able
od one
ĠL eft
ĠSt age
Ġcr ypt
ĠAltern atively
Ġresusc itation
Ġmoder ately
Ġor b
.. .
TT T
Ġest radiol
Ġepid ural
en chymal
er ge
Ġs ph
ĠS i
ĠD A
ĠTh ird
Ġsaf ely
pati ents
ĠServ ices
Ġremod eling
h ang
unt ered
H e
m id
Ġf oss
op id
ĠR Nase
ĠL eu
ogen es
AT CT
Ġmic ros
Ġserv es
Ġret ard
Ġblock ade
ns on
ĠH ig
Ġver ified
Ġsperm at
Ġremov ing
C E
Ġp et
Ġevalu ations
ĠPr ice
ĠCa ucas
Ġens uring
Ġegg s
ĠT AB
um a
1 12
h and
n R
Ġcoun ted
GA CC
Ġmultic enter
ript an
Ġcig are
b est
Ġwe ights
Ġcirc uit
ĠSam ples
Ġreflec ting
Ġhypoth al
Ġenco untered
Ġsupernat ant
Ġsp ray
Ġmor ning
Ġexerc ises
Ġwall s
Ġimpl ies
Ġattenu ated
ĠM B
um ed
cer al
Ġalkal ine
ĠT iss
ĠF R
Ġprono unced
ĠD ys
Ġindivid ually
Ġphenomen a
ĠPop ulations
Ġen ables
Ġmass es
oplasm ic
Ġimmunosupp ressive
b rile
on ate
Ġtri ang
Ġwalk ing
Ġs ay
Ġbe vacizumab
ĠR am
f at
ĠP al
Ġac tively
Ġcam era
ivol umab
T rans
i osis
Ġradi ological
Ġeth ylene
urg ery
Ġclean ing
Ġarr hythmias
N G
Ġstructure d
Ġin ability
un it
ĠF ox
P L
er obic
ine a
ĠCardi ovascular
s i
ĠA kt
ĠF isher
Ġins omnia
Ġâ ĸ
Ġneutroph il
b ody
Ġt ender
ĠC u
ĠB ur
Ġmal formations
Ġyield ed
ĠIns ulin
Ġgro ss
ĠCons istent
N R
g one
i us
al dehyde
ar atus
Ġv apor
Ġtrans formed
Ġatheroscler osis
Ġc ream
omm od
Ġconf ocal
Ġcalc ulations
Ġmac ular
Ġst ation
ĠD ose
anc omycin
aund ice
H L
Ġsk ull
ĠZ n
Ġnutri ent
il os
Con clusion
Ġhydroph obic
rop athy
og rel
Ġperin atal
Ġlys ates
li ptin
ĠBo ard
h o
Ġtr yp
Ġappe tite
Ġsched uled
Ġpac litaxel
opid ogrel
di a
Ġem p
Ġvisual ization
Ġwrit ing
Ġure a
Ġtight ly
Ġhippocamp us
Ġintermit tent
Ġt ric
Ġad aptive
Ġtrans porter
10 3
Ġfall s
Ġreag ent
er ating
Ġre min
ĠP ress
ĠN ovember
Ġpl acent
Ġcoh orts
ĠP at
ĠD own
Ġmorph ine
Ġ(âī ¥
Ġb ig
il ized
Ġ10 4
ĠS odium
am us
ĠR F
ĠN E
Ġvol untary
Ġneuro trans
Ġutil ization
Ġdeterior ation
p us
ath yroid
Ġhem odynamic
Ġsuff er
hyth mia
Ġinterview s
ec an
g rad
h ist
y se
Ġw rote
Ġth ings
Ġob taining
pad ding
P K
ĠW ar
Ġimmun obl
Ġexc itation
Ġimplement ing
Ġsym pathetic
Ġacc ompl
Ġj ournals
Ġless er
Ġ14 0
aps es
Ġexperi encing
uls ive
in avir
Ġpart ly
Ġemb edded
Ġanalges ia
Ġcomp rom
Ġdiss ociation
ott les
ĠBre ast
( ""
Ġcut off
Ġcon cepts
ĠB ay
ĠGerm an
Ġep it
f it
Ġle aving
ĠL ou
ĠV A
Ġorgan ized
re active
ĠT S
Ġanti hypertensive
Ġcorrel ates
% }.
B ackground
E x
Ġg lo
ym b
ĠHC W
ĠEns ure
("" )
ym er
Ġdisc rep
Ġillustr ated
Ġcardiomy opathy
Ġaud itory
ĠÃ ħ
ĠMa jor
f ected
Ġd uc
ur ally
Ġstreng then
ĠSP SS
oqu inol
âĢĻ ,
n g
Ġd as
ur ane
Ġch i
Ġves tib
Ġshould er
Ġtub ular
Ġentire ly
stim ulated
g ov
Ġdescrib ing
Ġdysp nea
ĠP AS
ĠD oc
ĠE ast
Ġbi osynthesis
Ġmic ron
Ġmit osis
Ġavoid ing
Ġangi otensin
ĠMedi an
c d
Ġn t
Ġsim ulated
ĠCon clusion
Ġsex ually
Ġsl ides
Ġplate lets
Ġinfl iximab
ar one
tic le
ren orphine
Ġdo ing
Ġconsum ed
Ġcluster ing
Ġdro ple
Ġcentrifug ation
Ġepig enetic
il ine
Ġunder gone
phosph ory
Ġgall bladder
Ġrespir ation
ĠT et
ĠTh ough
ĠE EG
ĠB a
ran ce
Ġar ising
rel ation
inc ome
erc ially
Ġrese mb
ĠHe ad
Ġexacerb ation
Ġpunc ture
ĠMother s
b ottom
ĠA z
op ram
ĠN ext
Ġent ered
ĠAug ust
Ġunnecess ary
Ġsens ation
AD EC
Ġsom atic
Ġenl arge
an er
an ing
an tib
il ical
ĠP f
ĠH L
ospor a
he alth
Ġv ast
N M
Ġtr ace
Ġprop ag
ĠGl uc
c ar
200 5
Ġpropor tions
ĠKe y
z id
Ġin ver
ĠL ik
Ġob jectives
ĠCM V
conjug ated
Ġsynth ase
on yl
Ġoff icial
Ġbuil t
ĠRepro ductive
re al
Ġdim ension
Ġmyel oid
Ġhous ing
Ġst ream
Ġlig ament
Ġimmunodef iciency
N I
ĠA st
ĠS un
ĠEn ter
ĠFem ales
Ġpred nis
ĠC riter
ĠG TT
Ġmet als
Ġwarran ted
P O
f ed
Ġmedi ate
Ġw ish
ari o
Ġindic es
arrh oea
Ġg ast
ĠC BS
G AP
Ä ħ
Ġex ogenous
ĠO bs
Ġph armaceutical
ocardi al
ĠBR CA
Ġglycop rotein
ĠCON CLUSION
th romb
10 5
10 6
ĠAD HD
oxic illin
fort unately
rol izumab
ĠAR V
ĠPlasm a
om atous
ĠM MR
Ġst re
ĠF T
Ġle thal
Ġcryst als
racycl ine
in ted
ĠThe rap
ĠD om
AL T
H E
pro c
ĠAg ency
l ab
p res
Ġst ere
ptom ycin
Ġacid osis
ĠPro ject
Ġline age
t ures
ĠB ac
Ġrel ig
Ġisol ate
emb rolizumab
Ġspectr al
Ġanalges ic
ĠL ymph
and em
Ġpl aces
ĠSpec ifically
Ġfamil ial
Ġconsequ ently
Ġepidem iology
ontin ence
or us
Ġw ww
Ġd enti
ur red
ĠF low
ĠK it
ĠDop pler
vi olet
Ġpr ur
Ġradi al
Ġlack s
Ġassum ing
ĠTw enty
lipid emia
c an
Ġal k
ĠM ann
Ġacc ommod
old s
plant ation
ĠSystem s
ĠAv oid
Ġembol ism
ra x
ad em
ĠN ov
ĠL ys
Ġpass ive
ĠVari ous
A CT
ol gi
ĠV TE
Ġsome one
P h
Ġis let
Ġcons ervation
Ġeff usion
Ġhom ogene
Ġcontracep tion
Ġsup plies
oid es
Ġoxid ase
Ġfit ness
Ġinteract ing
Ġparas ites
Ġcover ing
P E
osp asm
â Ĩ
Ġd omestic
ĠS ol
requ ent
Ġpsych osis
medi an
Ġp als
Ġacco unts
Ġdetect or
Ġbul k
arv ae
ĠVit amin
b all
ath ione
Ġma pped
Ġtop ics
obl asts
aqu es
t d
qui re
Ġj oin
Ġconstit ute
ĠE CM
Ġmut ated
Ġestab lishing
Ġregul ators
Ġlat ent
et ron
Ġcol our
Ġret ina
Ġdys ph
Ġload ed
Ġt ac
ĠS elf
ĠM ales
ĠF ac
Ġres erv
ĠRepresent ative
Ġin gestion
ot o
ĠS n
ĠE t
Ġcat ar
Ġderm at
Ġexpect ancy
Ġanticoag ulation
Ġde hydration
Ġimp ossible
Ġprop ose
in i
Ġl ysis
ag liptin
em ed
Ġins pec
ĠInf lu
Ġpro jects
Ġno vo
Ġsol ar
pro ducing
ag inal
Ġad ul
Ġcl othing
Ġtend on
Ġker at
Ġhall uc
Ġquanti ties
10 9
Ġopi oids
Ġflo or
Ġc ited
ĠL abel
Ġ19 70
Ġcomb ining
29 3
Ġp oin
Ġenzym atic
ĠT ur
Ġhist ology
ĠAccording ly
Ġn ation
sy n
ĠHy pert
Ġmarg inal
b ra
Ġat omic
200 6
Ġerythem a
Ġst one
ĠI BD
ĠF uture
Ġpost menopausal
ling s
Ġstabil ization
Ġpil ot
ĠNSAID s
Ġs arc
br uary
ĠNO T
Ġneurolog ic
omegal y
Ġan esthetic
ĠW nt
ond on
ĠSt atus
ĠNon clinical
ĠServ ice
ĠWarning s
Ġb ac
ĠM il
ĠE Q
ĠE sc
ost at
Ġuter us
Ġb id
Ġtrans cribed
Ġco vari
Ġgl aucoma
ĠCh i
onia zid
Ġuncontrol led
ater n
Ġev olved
Ġmeet ings
o L
Ġf abric
Ġe qui
ĠT reg
op sy
Ġpress ures
ĠBrief ly
Ġc ran
ĠH ol
ĠJ AK
Ġprob able
ĠAd vis
Ġmat ching
Ġconfirm ation
e lec
ĠG old
ĠFig ures
it z
ill ion
Ġdiff ered
ĠNeu ro
om otor
per g
Ġe at
ĠL PS
ĠComm ission
ĠHS CT
th ood
ĠF in
Ġapp aratus
Ġgene tically
opl astic
Ġcolon ies
Ġarbitr ary
Ġc urren
Ġb rought
Ġ* **
edic ated
Ġconfound ing
ĠChe ck
D D
b urg
Ġmicro bi
ĠÏ ĩ
c omes
z om
Ġd ense
ĠT im
ĠN MR
Ġcouns elling
N e
ĠC AP
ĠC ontinu
uc onazole
Ġwid er
ulos keletal
et ine
Ġpro tr
Ġr RNA
Ġsus tain
U V
Ġs ap
ĠC ys
Ġfit ted
or ubicin
ĠC IN
Ġref erences
Ġcharacter ize
ĠElec tro
Ġsaliv ary
form ing
Ġeukary otic
zom ib
G D
ass isted
sc ore
Ġo sm
ĠC pG
ĠN Y
12 2
load ed
amps ia
Ġglycer ol
f s
Ġsur prising
ĠCh lor
Ġ16 0
ĠCon versely
MS O
Ġdimin ished
ĠR ac
ĠS il
am er
Ġco ated
Ġthere after
O B
g ence
as ic
Ġg aps
ĠC ycl
ew ise
ĠY o
Ġplot ted
mi R
Ġdis abilities
Ġvit amins
acchar ide
Ġsole ly
id den
umab ly
Ġcondition al
Ġconform ational
Ġcircumf erence
ĠGlob al
ĠT ub
Ġdi al
Ġmenstr ual
b one
on a
om ial
Ġcomp atible
ĠIm plement
Ġequ ations
Ġm aps
Ġcompan ies
al i
ul i
Ġl ives
ak a
Ġval pro
ĠPro ced
Ġann ually
Ġantidepress ant
ĠCharacter istics
Ġres olve
ph i
Ġlith ium
L DL
ess or
ĠR andom
Ġswallow ing
N N
s ur
Ġl ibrary
Ġch ick
ens ation
ap revir
Ġaer obic
Ġin herent
Ġl uciferase
ĠM ental
Ġrec essive
Ġgener ating
Ġeffect or
ospor ine
el ess
Ġsp ot
Ġj unctions
Ġfe eling
Ġapparent ly
Ġenl arged
Ġstrom al
Ġdoc uments
Ġnutri ents
e j
Ġth ous
iti g
Ġleak age
strand ed
as tern
ĠIg M
Ġempt y
i ro
Ġh omes
tic aria
ĠB er
az one
lim ited
o yl
ĠF luor
Ġcl ick
Ġdes c
aff in
Ġrun ning
ĠF ib
Ġpres erved
Ġsm ear
ĠTAB LE
W A
ĠT i
se q
ĠH SP
Ġspontaneous ly
Ġt ro
vi e
Ġcar ies
11 6
g el
n m
Ġper c
Ġwhen ever
Ġclaim s
hep atic
S ch
tim ated
Ġvacu um
M et
U TR
ĠA ir
Ġemerg ed
Ġrequ est
ĠPath ophysiology
ĠFund ing
enh anced
ĠNet work
an tic
Ġ( "
Ġl arvae
ĠL ung
Ġme als
Ġhydro lysis
p op
r one
y a
oc ol
Ġthreshold s
in osa
op en
Ġfer til
ĠAK I
as ome
ut amide
ĠE B
ĠB one
Ġprom otion
F U
Ġc ros
ac quired
ĠO per
Ġinvestig ating
Ġdocument ation
Ġoverl apping
Ġm ism
Ġtr ich
im od
ut s
ad one
Ġwe ighted
Ġautom ated
Ġj aundice
ĠAut hor
Ġdisturb ance
comm ercial
G I
w l
Ġrel apsed
Ġsp ent
Ġexc it
Î ´
10 4
Ġsuppress or
Ġelectroly te
Ġo ocytes
Ġphosph olip
Ġcollec t
Ġresid ent
Ġrh initis
Ġf ire
Ġtend s
S ee
Ġs ector
Ġ( +
ĠP rom
oc ated
ass ess
Ġelec tive
Ġfocus ing
aro x
Ġarrange ments
Ġun ilateral
Ġclon ed
Ġreag ents
Ġcategor ized
Ġscal p
guid ed
ter feron
Ġcomp e
ĠÎ ´
f ib
Ġin patient
or in
op ol
ch oline
ren e
Ġinterpre t
Ġhybrid ization
Ġrif ampin
Ġhypertroph y
ĠLou is
Ġdi arrhoea
aw a
Ġbio availability
B r
an ish
Ġpa ediatric
Ġadminister ing
k et
Ġs hed
op od
Ġcarcin omas
Ġgran ts
col or
Ġinteg ral
en a
Ġdiag ram
bo ok
ĠAb s
Ġconfig uration
S h
ret in
eti tive
O s
Ġdef ective
ĠDis tribution
Ġleg s
ĠVacc ine
Ġperm its
Ġprog ressed
Ġexc luding
Ġ198 8
ĠDel ivery
Ġst ool
Ġend emic
Ġattrib utable
Ġdiges tion
Ġun related
Ġimmun o
Ġderiv ative
w ing
Ġto uch
ĠT K
Ġg er
Ġde br
ĠTh rough
Ġfl ies
Ġventi l
ĠD Cs
Ġle ave
ast in
Ġtim ely
ethyl ene
Ġwa iting
Ġequi pped
id opsis
Ġinc ontinence
ron tal
ĠH E
Ġview ed
Ġcolon y
Ġinn ate
omon as
Ġcontrain dications
Ġal umin
ĠB ro
Ġapp end
Ġaut ologous
Ġbo ys
Ġow ing
Ġsocio economic
u an
12 3
omy el
abol ism
apl an
Ġbal anced
Ġregen eration
ĠStrept ococcus
X A
Ġf uel
ĠT RP
ĠS us
Ġlymph aden
Ġenh ancing
Ġcy steine
W HO
Ã ³
Ġtrans mit
vis iae
Ġorth olog
Ġaddi tive
t umor
Ġm olar
Ġtrans verse
Ġsuc rose
g ments
Ġp p
Ġan esthe
st ained
Ġun w
Ġmod es
opro st
Ġenter ing
ren ergic
Ġheter ozygous
plate let
Ġdup lex
Ġs ides
up us
Ġun specified
Ġf oci
ĠI IV
yp ically
Ġcons olid
Ġnucle ic
Ġminim ally
Ġmarg ins
ĠState ment
ĠTiss ue
Ã ¯
ot ing
ĠC arb
ĠM ad
ĠD SM
di rected
Ġcomm ercially
Ġexpl oratory
Ġgener ic
ĠPro b
ĠFe bruary
ĠT aken
tis ol
Ġ198 7
Ġexhib its
Ġcarbo hydrate
Ġor ange
ĠIn form
ĠL ike
Ġclass ic
oc ys
ĠO ste
ĠFem ale
Ġmicrotub ule
Ġst ones
ass ay
Ġout we
Ġfor ced
amic in
Ġcere visiae
Ġlet ters
Ġs enes
ax ia
Ġwork place
Ġpig ment
Ġstratif ied
res pective
ĠP i
iv ariate
Ġeas ier
oc in
Ġlymph ocyte
eric in
Ġdend ritic
Ġre tain
Ġenh ances
Ġhom ogen
Ġunex pected
r ink
z es
ĠRecommend ed
Ġcentrifug ed
ĠP s
Ġelev ations
v an
ĠE mb
val ues
Ġinj ured
Ġdram atically
ĠRef er
ĠOr th
Ġmacroph age
A IDS
Ġdon ation
Ġnic otine
Ġinten tion
ĠAd ults
omp ass
A I
Ġc ranial
Ġc ation
ĠR ight
Ġph one
Ġindic ative
ex c
Ġadjust ments
Ġencephal itis
il imumab
ĠS l
Ġmicrotub ules
Ġplacent a
Ġcathe ters
oqu ine
ĠM Y
Ġpre natal
Ġrespons ive
Ġte ac
Ġconj unctiv
Ġconf ined
Ġdetermin ants
gin terferon
ĠM DA
14 5
Ġang io
crip tive
i res
Ġf re
ĠF ail
Ġdist ances
Ġdefic it
Ġhistopath ological
ĠMAP K
Ġpercent ages
re ased
Ġl in
Ġaccomp any
N a
ec tious
ĠP ulmonary
ĠM ice
Ġbiomark er
Ġdox ycycline
Ġglomer ular
b ro
re view
ich ia
Ġreg istration
Ġdisch arged
squ are
Ġp ed
Ġ10 9
Ġext ending
OS H
Ġslow er
Ġcompr ising
Ġect opic
phot ericin
Ġacid ic
ĠRef erence
rolog ic
Ġaden oma
Ġmim ic
D V
ĠP y
Ġes ter
Ġsequ enced
Ġsubstit utions
Ġopp osed
Ġcomplain ts
Ġpals y
ĠT arget
Ġr ated
Ġch or
Ġper p
Ġra b
Ġcyt ology
Ġintra operative
men tioned
ĠL ess
ĠV an
Ġ201 6
amin ophen
Ġpass age
Ġspl en
acet am
Ġantipsych otic
ĠSV R
Ġker atin
Ġmanag ers
H IV
l ocal
Ġvis ceral
ĠAC K
ĠCH D
Ġaer osol
Ġadip ocytes
anib izumab
D i
ir ium
ĠW illi
ak i
Ġt aste
Ġadul thood
f our
Ġlower ing
Ġanten atal
in in
in der
Ġd ab
ĠC ef
Ġcl amp
Ġhom ozygous
ĠUp on
Ġfing ers
1 19
Ġsec urity
Ġfac es
Ġstimul ating
Ġquantif y
Ġemph asis
Ġrit onavir
Ġt rap
Ġd edicated
im b
ĠL td
Ġdiagn osing
Ġdifferent ly
con f
Ġenc ompass
Ġeth ics
Ġulcer ative
Ġdistingu ished
Ġcholec yst
Ġirre vers
Ġdia ph
R e
Ġin activated
ot r
Ġacc ident
Ġspect roscopy
ĠNI H
ĠConsid ering
ure a
Ġco inc
Ġesophag us
Ġmoist ure
** *
Ġconcomitant ly
NO WL
ab dominal
ĠE s
Ġro w
Ġhaem at
aner cept
od g
duc ts
Ġinter fer
Ġanti s
ok e
ococc i
ĠOnt ario
O V
] ;
en ital
Ġg els
ĠIn stead
ap es
AS E
ĠSubsequ ently
Ġw ood
ĠC hen
S p
Ġim per
Ġ198 5
Ġs ut
Ġconduc ting
ĠAb normal
Ġiss ued
Ġarrange ment
Ġincons istent
. ),
Ġsh unt
ĠN PC
ĠEx c
uls ion
W H
rom y
ang er
NOWL ED
14 0
ĠExp osure
ĠCriter ia
c ancer
os ides
ir ty
ĠLo ading
Ġaccel erated
Ġmanip ulation
N OS
op ulmonary
opl atin
let es
Ã¯ ve
Ġimp ed
ier arch
h t
p ress
ĠA I
Ġhe ating
der mal
Ġvial s
A M
B io
Ġpar alysis
Ġmix ing
ĠArab idopsis
A F
ĠB rain
Ġcomp art
ies t
ĠSm ad
Ġindirect ly
Ġper mitted
ogn itive
Ġprep are
Ġaccept ability
oprol ol
respons ive
Ġseek ing
ar l
ĠT I
Ġh o
vi ve
ĠV en
ĠStr ong
re tion
id ation
Ġed iting
Ġradi ographic
ĠHB s
Ġcasc ade
Ġrear range
ear son
Ġphys iology
Ġreduc tase
ĠVari ant
if ies
ĠL ondon
ĠK aplan
200 4
f r
Ġser ial
Ġrepe ti
ĠDef in
onym ous
Ġdef icient
ithel ial
Ġbroad er
aro se
ĠExperim ental
ĠH o
ĠH and
Ġana phylaxis
ĠQuan titative
H Cl
Ġd raft
Ġstudy ing
) =
ens es
Ġpat ent
effec ts
Ġrig id
usp ended
ĠA ST
ĠP CV
Ġap nea
Ġfeel ings
ĠM F
Ġoste o
Ġincorpor ation
ĠRed uc
A p
es h
or ax
ar ant
ĠT RA
ĠResp onse
ĠACK NOWLED
pl ained
Ġch im
ins ulin
ĠGen ome
Ġconn ective
Ġappoint ments
ĠSuccess ables
G L
le m
ĠSup plied
ĠATP ase
Ġencephal opathy
l actam
Ġmo ved
Ġobs er
18 0
Ġradi us
Ġelectro cardi
Ġalter ation
ĠPa ul
Ġw arning
Ġkeep ing
r ide
Ġguid ed
organ ic
ĠT emplate
Ġsequ ential
as on
ac ryl
et t
ĠE g
ĠE stim
Ġun res
Ġaut onomic
ĠOver dosage
n c
p ath
Ġp in
Ġpl ague
ili ac
Ġexplain s
D T
Ġmethod ological
Ġfil tered
Ġturn over
Ġspectrom etry
Ã ¤
Ġun co
ron idazole
Ġexperiment ally
ĠCR C
c u
Ġm yc
Ġand rogen
Ġend points
Ġbehavi ours
pan ic
Ġthink ing
c is
h yp
r us
Ġc rop
Ġ( âĢ
Ġeth yl
Ġphyl ogenetic
ĠG ABA
Ġtr astuzumab
Ġdecl are
Ġcust om
r ons
s en
Ġthe ories
ra v
Ġmod ulate
Ġfe brile
Ġpseud o
Ġp lex
as semb
Ġfacilit ates
Ġconjug ated
Ġperme ability
Ġdiure tics
di vid
Ġdis tric
Ġgene tics
ĠDem ographics
s DNA
Ġb it
oc or
Ġun published
âĪ ¼
201 2
ut inib
Ġcalc ification
ecl ampsia
ĠWhe ther
Ġenlarge ment
c entr
l og
l otinib
ĠC hest
ĠPK C
ol ism
00 00
Ġlength s
ĠDifferen ces
b oth
ĠH EK
ĠCons ensus
Ġdisco unt
Ġfollic ular
ĠP rop
ĠP RE
Ġpub er
ophosph amide
Ġpersist ence
Ġelong ation
v ival
Ġb atter
Ġre per
ĠP ap
ĠE ch
Ġadj usting
Ġphosphory l
Ġyield s
Ġlook ed
Ġaver aged
Ġanticoagul ant
on ical
id in
Ġg ent
Ġpro pos
bor ns
Ġod or
ĠP EG
Ġcompar ators
Ġgon ad
ĠHig her
ic ion
ĠL ic
Ġur ticaria
Ġdang erous
Ġcurren ts
id ia
og roup
Ġsur vive
Ġhyp o
Ġgluc ocortic
ĠM usc
Ġne o
ch ain
Ġ10 3
ER T
Ġleg is
l od
Ġc d
Ġreg urg
hip s
Ġdevi ations
Ġkind s
Ġantif ungal
ĠHBs Ag
le b
Ġlim bs
Ġdisc ipl
Ġconfirm ing
hydro x
ach ment
Ġup regulated
Ġbound ary
Ġlact ate
Ġkine tic
Ġbelief s
in tegr
tr ast
ĠO A
ĠOn c
ĠSc ot
Ġadd ressing
Ġconn ec
Ġproxim ity
Ġflex ibility
Ġjus tif
Ġtrem or
ere ctomy
me tic
Ġcolon oscopy
Ġshe ath
r at
Ð ²
ĠC ity
if ier
ĠM ex
Ġun like
x ual
Ġc up
Ġp ale
Ġl id
Ġ1 11
enc l
Ġins ights
Ġackn owledge
Ġtele phone
Ġretard ation
al t
Ġe jection
Ġpro ve
ĠH DAC
ĠL ine
Ġdefin ing
ĠHa em
ĠItal y
Ġperf ect
N E
am ivir
ĠH Cl
Ġpre treatment
Ġdi pl
15 5
Ġaud it
A UC
Ġin equ
ar co
ĠA x
Ġy r
ĠK im
Ġsp aces
Ġwor th
Ġinstruc ted
ĠN it
tr ate
Ġmess ages
diagn osed
L N
l ong
im als
Ġis o
Ġal ert
Ġch art
ĠK O
Ġrep ress
air s
ĠEx pl
ĠCommun ity
Ġintoler ance
st ep
Ġsyn cope
Ġtra it
Ġfil ament
Ġdil atation
AR T
Ġrevers ed
ĠI A
yl ind
lic k
ĠGen erally
Ġseg reg
at re
ĠR a
Ġrec all
Ġpres ervation
Ġsim vastatin
ĠLe v
s ors
Ġt ap
Ġw ire
ig u
her ichia
Ġnm ol
ĠC am
tr um
orm s
ici ous
Ġphys ically
ic tion
ĠE X
yl ase
10 7
Ġï ģ
ce mia
Ġst atin
ĠN asal
Ġpreced ing
Ġarchitect ure
c ont
Ġth i
ath ic
Ġmes enchymal
ĠTest ing
n ic
Ġman if
Ġprof ound
AR D
Ġeng age
ĠSystem ic
Ġpath ophysiology
.... ....
Ġcal ibration
or rect
ĠT umor
Ġfol ding
eth ing
AA C
ĠIg E
Ġreli ably
Ġneurotrans mit
ĠD ex
Ġim bal
Ġup regulation
Ġenc ode
AG A
Ġdifferenti ally
Ġconn ections
Ġmand atory
Ġl ies
ĠL D
Ġpe g
Ġcirc ular
os h
Ġl ane
ig ibility
ĠP neum
Ġthough ts
Ġgo ing
Ġinput s
D es
Ġo ve
ut ch
ĠM ich
te zomib
ĠW ell
oph thal
ex pression
Ġer os
Ġax on
g lyc
n it
s ided
ĠG ood
Ġinter leukin
Ġmand ibular
Ġpenet ration
entan yl
) ]
I ST
im p
Ġ1 16
ĠS y
Ġfil aments
Ġhypoth yroidism
Ġvictim s
Ġconnec tivity
le ted
Ġn ick
Ġcl opidogrel
Ġsyn chron
ĠCh apter
Ġphen ytoin
Ġmac ro
ank s
ĠNor thern
Ġestablish ment
Ġt a
ĠAn n
Ġdisc rete
Ġvas odil
Con clusions
f osbuvir
t ri
ic ago
ĠS ulf
ran ts
ĠSo ft
dri ven
B N
l uc
m eth
Ġp embrolizumab
Ġst ars
ĠCO X
Ġtoxic ities
Ġbot tle
Ġremark able
ug inosa
ĠSt rength
Ġhy st
Ġa utism
ran ged
and er
ĠUn fortunately
Ġatt ending
opro t
Ġf irm
Ġre activity
Ġactiv ator
Ġem it
Ġpat ches
ES T
. (
er ror
Ġl ib
ag ree
Ġunder l
Ġsystematic ally
ip ar
S R
Ġd ich
ĠH IF
ore al
Ġhe red
Ġra ise
ĠAn nex
ob ia
ĠReg arding
Ġprolong ation
o ir
her ic
ĠâĢ ļ
arm acy
Ġbirth s
ĠSw it
Ġprecur sors
ati le
ocardi tis
lect omy
D E
et heless
ĠM er
ub lic
ak ed
Ġshel l
Ġophthal mic
ĠCer tain
g p
it ney
ĠT ables
Ġh osts
Ġneed les
Ġsyn erg
Ġstand ing
Ġposition ed
Ġov ary
ipp ing
Ġpolyp s
othiaz ide
Ġdep olar
Ġher bal
Ġstar ts
Ġclos er
oxif en
ĠYo ung
ens ing
Ġir respective
Ġm V
ur able
tic als
Ġpl aques
Ġexpl o
Ġip ilimumab
ĠCon clusions
Ġjud ged
Ġdepos ited
ĠF EV
ari um
Ġoper ated
Ġperc enti
Ġt rees
Ġre jection
Ġcho ices
Ġexacerb ations
Ġrod ents
ĠM ethod
ĠK Cl
Ġsol ub
Ġprior iti
ĠReg imen
Ġsil ver
ĠEsc herichia
ĠT O
ĠK i
obl astic
Ġaer uginosa
Ġimpl anted
ĠOut comes
Ġde emed
Ġun p
Ġpres umably
Ġen amel
Ġsp ots
10 8
Ġimm ature
jec ting
ĠPre par
Ġtrigg ered
Ġt ran
ion ic
ĠM i
ĠD ox
Ġpol yc
Ġtes ticular
Ġselec ting
Ġscre w
Ġdatas ets
Se q
z a
Ġs en
Ġv ig
ĠR b
ach n
Ġimmun otherapy
Ġgluc agon
Ġfil ms
Ġseas onal
Ġbe aring
Ġcom fort
Ġ10 8
til led
Ġdispl ays
F e
ĠS B
Ġass isted
Ġwhe at
Ġstrength s
Ġsuperf amily
Ġannot ation
ĠS ug
ĠF il
Ġpot ency
gluc ose
M M
Ġc ity
ĠV ery
ĠHep atitis
ĠTechn ologies
Ġfif th
ic ine
et ting
ĠE A
ĠAn imals
ĠJ E
Ġselec tivity
ges tive
Ġphot on
Ġumb ilical
h ouse
ĠT ask
ore r
Ġste el
Ġsept al
Ġdispos al
I O
ac ental
Ġund es
Ġpig s
Ġattit udes
n one
am oxifen
Ġoff ice
Ġenh ancer
ĠNot ch
rolog y
pr im
Ġrib osomal
n ol
w an
ĠE q
Ġcomp romised
Ġtri age
ĠÎ »
Ġj aw
Ġdeb ate
---- ----
Ġhaemorrh age
id entif
ĠM EF
Ġr iv
Ġz eb
EN D
Me ier
u ce
or acic
ĠB esides
ogene ic
eg u
Ġst ore
ĠD L
ĠLe e
onavir us
Ġdepri vation
s ulf
tr ucture
10 2
Ġfunction ally
ĠImmun ocompromised
Ġcre ation
Ġpreferen tially
X R
Ġt ens
on duc
Ġf illing
Ġn ivolumab
ĠF S
Ġag ric
Ġtox ins
Ġmanufacturer s
Ġhemorrh agic
Ġstiff ness
Ġt ex
ĠI Q
Ġund et
Ġglut athione
Ġethn icity
Ġvestib ular
on c
Ġhe avi
ĠPP AR
f rac
Ġre ly
ĠT um
ens iti
ĠL atin
Ġqu in
Ġsusp icion
ĠSte p
thromb in
d ate
p ox
it t
Ġro ck
Ġcol ocal
ĠAc et
ĠCand ida
en zyme
res olution
GC G
Ġtit ration
Ġhippocamp al
Ġo edema
Ġb irds
Ġl upus
Ġis oniazid
ran k
Ġselec tively
tex ts
ĠBios ystems
p ing
Ġre aches
ĠC arcin
Ġch ron
ĠL arge
az e
Ġoper ator
tid ae
Ġ198 6
Ġemploy ment
arox aban
odg kin
Ġk il
Ġhem isp
âĢ² ,
Ġintr on
ĠEmerg ency
Ġt ur
Ġc ub
Ġar gin
IN E
Ġcheck point
ig hed
Ġmod elled
ĠEx ternal
IC s
ĠSc hematic
Ġvers ions
Ġtoler ate
Ġfluor oquinol
Ġpolar ization
M aterials
ur ic
Ġv oice
ĠD AP
Ġdest ro
Ġultra violet
Ġoutwe igh
Ġac ryl
ĠB al
Ġun iversity
Ġgroup ed
Ġmon ke
AA CC
Ġpsych iat
Ġsatis factory
ĠWork ing
Ġresp onding
Ġ201 7
Ġ20 20
tig m
Ġcir cles
Ġair borne
P F
Ġf ecal
Ġpl as
Ġmet ric
13 3
ĠMet a
ĠCX CR
Ġvirt ual
Ġrough ly
Ġc our
ut h
Ġj uris
Ġcomput ational
Ġtender ness
H B
ĠSh ould
ache al
ĠPol y
Ġfed eral
ĠIndivid uals
ĠB acter
Ġintegr in
ĠPop ulation
ej un
ĠG a
Ġpost p
ER G
Ġcap ability
Ġneuro t
ĠCr uz
) ).
Ġf ur
ĠR out
ch rom
ĠV AL
ĠWe ight
erc ospora
Ġgra ded
ĠHP LC
arbon ate
Ġ ic
in ergic
om eric
il t
ĠC NT
Ġpath ologic
âĢĿ .
Ġstimul ates
y er
um ing
Ġch ose
ĠO P
Ġdep ressed
Ġoper ate
Ġce ment
ĠFunction al
ĠIndivid ual
ĠHypert ension
Ġ Å
ĠD MSO
ĠF OR
ĠR SV
CT C
ĠWe b
Ġoper ational
Ġsom ething
Ġhab its
Ġiod ine
best os
ĠSur vey
Ġreplic ates
c itabine
d ensity
Ġob lig
ack s
Ġcol onic
ĠBe havi
Ġgrap hene
ov udine
ĠAss oci
Ġbelong s
Ġbup renorphine
U G
c ycl
Ġhist orical
Ġbro ken
ĠHist orical
Ġfit ting
om ies
ad ian
arg es
Ġbl ast
ĠEn vironment
Ġretin opathy
ĠGastro intestinal
g ree
et ers
Ġcon texts
ĠS k
Ġcom ment
Ġmax illary
ĠAckn owled
a ign
ĠA Î²
Ġcor tisol
Ġnit ric
raf ish
Ġparad igm
b f
ĠThe rm
ĠP B
Ġdec ide
ex per
ilos oph
st atic
ell ig
Ġtri ed
ed uc
Ġb rand
ac illin
ĠSam ple
ĠPrevious ly
Ġconstrain ts
b eta
s ue
Ġnew borns
Ġdecl ined
Ġgrad ual
d em
s elf
ĠT ell
Ġpar athyroid
form ance
Ġno tion
Ġduplic ation
m ouse
ĠD ental
ven ile
Ġprob abilities
Ġmy osin
Ġconjug ate
ob enz
11 1
Ġneurop sych
oxyl in
f luor
Ġv ed
iz ers
Ġpa id
Ġlat ency
ul as
Ġh ierarch
ĠCh icago
ĠUn it
RI s
ol ateral
ĠP aren
op ia
âĢĻ .
orpor ation
ĠUltras ound
Ġst ents
ann er
Ġcur ric
Ġblind ness
ĠShort age
Ġprur itus
Ġt ons
Ġf eces
ign ant
13 5
Ġpac em
Ġbor tezomib
Ġm itig
ar ter
os arcoma
ĠD on
ĠD ES
Ġmod ify
Ġro bo
Ġdo i
ĠÎ¼ L
ke leton
ifferen tiated
mod erate
Ġarr hythmia
Ġm t
as hes
fer ior
Ġdel ays
app ro
Ġpneum ococcal
Ġenti ty
Ġsearc hed
ĠP rol
Ġrem ember
af il
Ġlo ops
ĠOr der
ĠDifferen ti
armaceu ticals
Ġvalpro ate
in ance
Ġf ra
ot ecan
um ination
ĠP BM
se vere
Ġultras onography
Ġfibro us
ĠCong enital
e ine
Ġe GFR
Ġassemb led
Ġfa ecal
Ġres uspended
ĠB rown
Ġsp ring
Ġcoord inated
Ġlet ter
Ġgins eng
Ġh oc
pec itabine
Ġhydro xy
Ġtransl ated
Ġsuic idal
Ġath letes
Ġbrad ycardia
g rowth
ĠT em
ell um
Ġall ergies
Ġar ises
Ġgra ding
aryng itis
ĠDiscl aimer
ĠI BS
ĠM CF
por tion
dom ain
Ġanaly zing
Ġshe et
ĠNI OSH
ĠC K
âĢĿ ,
pro cess
Ġasc ites
Ġshif ts
Ġcompe tition
Ġ erg
Ġinc orrect
Ġ10 7
dis play
Ġmyocardi um
Ġgran ules
Ġdissemin ation
ic ella
ĠR oy
Ġcycl ic
R ad
S F
ab out
ĠH EP
anc iclovir
Ġed ition
Ġphen yl
ĠDe ath
Ġmid w
Ġsed iment
Ġuna ffected
ĠF c
Ġdef ense
Ġca esarean
Ġlast ing
chem ical
R ec
al utamide
Ġover dosage
Ġcaus ative
Ġcycl osporine
Ġrev ascular
Ġcholecyst ectomy
p ot
ĠIn tegr
Wh itney
Ġnumer ical
b ase
is ely
16 0
Ġaccept ance
Ġepidem iologic
Ġoffer ing
ĠAv ail
mat ched
G en
O b
us ually
ul ature
ost atin
13 2
AD S
Ġinterest ed
ĠCom plete
Ġdiet s
Ġnit rate
: ...,
os tics
Ġst atic
ock ing
22 2
ycl onal
rup t
Ġtrack ing
Ġno tice
Ġimp acts
Ġimmun ofluorescence
ĠBi otechnology
ĠAL L
exp osed
Ġanalog ue
T NF
Ġt ar
es pecially
ĠT raining
ĠQT c
Ġregurg itation
d ec
w ar
Ġev apor
ĠOff er
Ġcereb ellar
Ġgal ax
g ram
id ovudine
ut y
ĠL aw
Ġco ating
Ġmid line
otrans ferase
G lu
T K
Ġw ard
Ġf used
tr onic
yc lovir
Ġtra de
Ġgu arant
Ġbroad ly
Ġattenu ation
ĠPerc ent
ĠFail ure
T o
t otal
Ġhelp ed
ĠDis play
Ġaccum ulated
Ġbur ning
Ġtermin ation
Ġophthal m
Ġproce ed
U M
Ġcon gestive
ĠGu ide
Ġr anibizumab
ĠG ATA
ĠPre valence
Ġtrigg ers
Ġnas oph
i ph
s im
u er
le g
ore xia
Ġcom a
Ġrespond ers
Ġove res
in ucle
Ġb illion
Ġcar ries
Ġnucle osome
Ġfr uits
Ġhazard ous
Ġket amine
Ġver ify
ĠPP I
Ġhered itary
y ur
Ġt in
Ġp g
Ġl ot
GT A
Ġheter od
Ġaccum ulate
Ġenrol l
Ġs el
Ġf ly
ĠP EP
Ġmanufact uring
TE E
ĠRel ative
Ġimmunosup pression
C r
N B
O RI
l at
ous tic
Ġcl ot
ĠDet ection
Ġperi operative
ĠMg Cl
azol am
Ġcompart ments
it arian
Ġover load
13 8
Ġcircum c
roc yte
Ġure ter
Ġpel vis
O A
c ing
it tal
ĠF re
ĠG olgi
ĠNot ably
Ġax ons
Ġtriglycer ides
Ġc iprofloxacin
el d
el lect
Ġg ases
ĠE lev
Ġen velop
gra vir
Ġprompt ly
Ġsecret ory
er als
om yc
ĠT ogether
Ġg ynec
Ġ1 15
pl asty
Ġcle aved
Ġdiffic ile
ĠAr g
adj uvant
Ġcrystall ine
Ġging ival
ul ent
00 6
Ġdos ages
com itant
Ġhepat ocytes
Ġthorough ly
Ġgraf ts
G rade
ul opathy
et r
ĠD H
Ġbi ofil
Ġap ex
Ġsurg eries
yc lo
Ġcompr ises
k es
v ar
as se
ĠT RI
ĠR ich
Ġdi acetyl
ĠAc adem
ĠIg A
Ġcas ual
ir t
ĠB on
Ġsug ars
Ġ12 9
EC s
Ġextrem ity
Ġintens ities
ĠSwed en
Ġt ic
Ġm ating
Ġg rey
ĠSt roke
Ġcondition ing
Ġaltern atives
Ġlam ivudine
Ġdysph agia
ĠC ere
te bral
ĠW NV
Ġinvestig ator
ocy an
ĠTTT C
ic ol
Ġbi otin
Ġmis use
ĠReport ing
cobacter ium
ĠM n
ĠM SCs
ard ed
Ġsuc cin
ĠBas ic
ĠImplement ation
B MI
Ġno tic
Ġ201 8
Ġap plies
Ġdesign s
Ġz ol
Ġaden osine
Ġaff ord
Ġanastom osis
c ause
j ury
u ent
Ġ1 14
het amine
I m
Ġb if
Ġcur ative
+ .
Ġtr ust
Ġtr unk
Ġimmun ological
ov a
Ġperiod on
Ġtes tis
Ġapprec i
Ġmeth adone
Ġwill ing
Ġcarb oplatin
Ġrest oration
Ġank le
Ġleaders hip
Ġglo ves
Ġosteo arthritis
ĠB SA
Ġextrem ities
Ġembol ization
Ġunex plained
Ġirrevers ible
s ter
ĠP FS
Ġat axia
Ġab ol
Ġnec ro
Ġdom inated
Ġcollec ting
ĠCor onary
Ġpap ill
Ġprogen itor
Ġan ter
vi x
AR AN
lob ulin
Ġz ones
ges ted
Ġleuk ocyte
rog ate
ĠIntra venous
Ġneopl asms
Ġenab ling
Ġgyr us
/ -
Ġf ill
ra red
ĠL oss
so ver
Ġcare r
Ġgo at
Ġsynt hes
Ġabsorb ance
Ġweigh ing
p ur
Ġs av
Ġcon ce
Ġam el
ĠPro te
Ġdel irium
ii i
Ġlapa roscopy
ĠMid dle
ion ate
til es
Ġed ges
Ġpsych ology
Ġbelong ing
Ġdiscl aimer
at ers
Ġd ressing
Ġcell ulose
min ute
Ġfl ag
CR P
Ġoxygen ation
Ġprofil ing
Ġ iliac
or ient
ĠM es
ugh t
Ġq d
Ġcogn ition
ĠMod erate
ĠTH E
ĠR are
erm an
Ġdisc ol
Ġep inephrine
ĠCon comitant
Ġglyc ol
ĠBet ween
Ġaber rant
W I
e per
n am
Ġpro jection
ad ed
ĠW ang
Ġins ec
12 6
Ġclo ud
Ġinspec tion
K ES
w ords
at ell
ĠT ok
Ġag arose
of ol
P r
ĠL apa
Ġem tricitabine
Ġext ends
ibr ated
review ed
N o
d et
Ġ ib
Ġs ports
ag g
vir us
man agement
ĠAL S
Ġfre ely
. -
l ational
o is
ti an
Ġp acing
Ġnot able
Ġne gl
ath yroidism
IT C
Ġdissemin ated
b order
Ġh ind
um atic
Ġpos itivity
Ġpr ison
eng ue
Ġcut ting
Ġc ast
cur y
Ġwell being
ĠDep ending
Ġanat omic
G s
ĠB RAF
Ġapp endix
o tics
Ġg iant
ĠA ust
Ġmon ocytes
rain ed
Ġform ulated
af tor
ull ary
Ġol factory
Ġloss es
itone um
Ġbreak s
Ġbreak down
Ġpoll en
Ġmathematic al
ĠP earson
Ġar rays
Ġtit ers
ĠPhys icians
ĠC AT
if erative
ĠG overn
Ġfac ulty
Ġretrie val
b ul
od al
Ġdig oxin
ĠStatis tics
ĠCL L
lit azone
Ġex em
ĠF lu
Ġse a
Ġme ant
Ġser ologic
tail ed
lym ph
in hib
Ġcl one
12 1
ĠRep ublic
Ġemo tion
onym s
m ar
Ġf ellows
Ġpro of
ĠS ac
ulin um
be gin
Ġthick ening
Ġeosin ophil
Ġsilic on
c ap
Ġh ole
Ġv in
ĠR ole
Ġro utes
Ġgra des
ci ences
Ġglyc ogen
Ġirradi ated
gra duate
orp oreal
Ġreinfor ce
A US
en ergy
Ġp ocket
ĠG lu
rep resent
z one
ĠC PC
CD C
Ġcycl ophosphamide
avail able
Ġ1 17
ĠF M
ĠG rant
ĠK D
Ġconf er
Ġavoid ance
Ġbound aries
Ġhern ias
Trans cript
Ġo val
ul se
Ġz oster
GA CT
ĠDes ign
p rop
Â ¬
Ġt one
Ġa ce
is ters
Ġ( ~
Ġr im
ĠF P
ĠR AS
Ġco il
Ġmedi ates
ĠIdentif ication
Ġe ase
om plicated
th ird
12 7
Ġwork ed
Ġbo oster
onucle ar
Ġadop tion
ĠC ox
ĠC CR
ĠD N
end ocrine
erv ing
Ġminor ity
Ġrevers al
Ġschem es
Ġ %)
in ator
Ġas bestos
roph yl
ĠStr uct
ĠEr ror
Ġretrie ved
ĠCaucas ian
ax one
Ġacco unting
Ġnor thern
Ġdrop s
Ġdis ulf
ĠW ales
12 8
Fig s
ĠHem at
Le vel
Ġvirt ually
Ġfasc ia
p eptide
Ġle th
lud es
ĠTh romb
exp osure
Ġclar ify
Ġpractition er
as ted
ĠC RE
Ġnormal ization
Ġpert urb
s ch
v in
avir us
Ġmuc ous
Ġord ered
ryst all
achn oid
Ġs arcoma
am en
Ġr ings
ĠÂ §
Ġvir ulence
Ġax onal
Ġblind ed
i ently
re ceptor
ĠT g
ut ely
ĠM V
ograph s
AS P
IF N
tub ulin
it um
ri age
asm a
ĠNM DA
Ġabstr act
Ġas part
Ġr uled
ĠR S
oph ore
ĠDe v
ophil us
ĠAcadem y
t reat
Ġnot ably
erg ent
Ġsaf egu
yur ved
P a
on omy
ĠS CC
ĠP RI
Ġex ec
th ing
Ġde ploy
Ġab ilities
low ering
Ġrun s
cha emic
omyel itis
ĠVAL ID
um ines
ag ittal
rot omy
b enz
as y
Ġac ne
14 3
ĠRNA i
chlor othiazide
Ġsearc hes
a ven
f requency
Ġ1 18
Ġcomp eting
Ġtrans porters
Ġves icle
Ġmanifest ation
ĠGer iatic
Ġorb ital
k ines
p rol
x in
z o
Ġnum b
Ġhum idity
ĠPers pective
ticular ly
Ġsenes cence
us ive
Ġn i
un ic
ĠA verage
Ġprot ons
Ġget ting
ĠGU ARAN
Ġcatar act
ĠGUARAN TEE
ĠL Y
Ġtrans itions
Ġwell s
11 5
CA L
enter ic
Ġca ud
Ġver bal
ĠGuid ance
Ġmosquito es
Ð² Ò
ĠVALID ITY
Ġin herit
Ġtrans amin
Ġ' '
Ġana emia
Ġuncertain ties
ĠMA KES
Ġcomorb idity
os um
Ġsh am
Ġsp ons
ĠAd min
pre gn
Ġopen ed
Ġneopl astic
Ġadministr ative
G al
t in
Ġpe ginterferon
ram e
Ġhemat oma
Ġdiver tic
Ġstat ins
Ġzeb rafish
d on
ĠH al
of loxacin
200 3
yr in
Ġleuk aemia
ĠStr ateg
Ġanth rop
Ġcompens ation
L i
n ed
Ġt ors
Ġd eline
oc onazole
ap ent
ĠAg ain
Ġtet anus
ester one
Ġvulner ability
Ġattrac tive
Ġbenzodiazep ines
Ġt andem
Ġtri plicate
23 1
Ġassay ed
Ġa qu
in ous
Ġs on
th ree
Ġpar i
ep tides
Ġthromb us
Ġrub ella
Ġdiaph rag
ok al
Ġsec ure
Ġnec rotic
Ġpromot ed
ĠInc idence
Ġcytos olic
Ġriv aroxaban
Ã £
ati de
Ġres orption
ĠE U
rit on
Ġaccording ly
Ġnons pecific
Ġanc ient
n ar
ac aftor
uc osal
Ġr ins
Ġit ching
ermin ation
Ġchem ically
Ġread y
Ġge ographic
Ġargu ed
Ġb ottles
el ae
Ġse ptic
ĠFor ce
orb id
uls ions
ĠHS V
Ġswe et
B i
Ġvis c
ĠAC S
Ġcoord inate
Ġderm al
ĠVis ual
E GFP
en em
al and
im a
Ġg p
ut ors
ĠV ic
iel ding
ĠPre dic
Ġprec isely
Ġstrand s
Ġendomet ri
Ġdepos its
Ġcool ing
al gia
ĠD F
ĠG AAA
uter ine
rosp inal
oc onstr
ĠD at
ys tic
Ġfil es
Ġmyel oma
Ġplastic ity
Ġangio edema
Ġs ib
ab d
ĠM aternal
Ġim aged
Ġorig ins
Ġsw im
Ġpolymer ization
Ġexpect ations
ĠInflu enza
E r
op rophyl
ĠM ild
). "
ĠG AP
ital opram
iod arone
ĠFA M
ĠPseud omonas
Ġjudge ment
Ġin effective
Ġall ogeneic
ĠAd d
Ġtra ine
ĠPl ace
ĠInstit utional
IS H
Ġcreat es
hal f
Ġperoxid ase
on ad
ar ation
st in
Ġbi ologic
ort em
inc ter
Ġuseful ness
Ġnod al
Ġren der
Ġlens es
ras tructure
Ġdu ties
p rom
in et
he ads
Ġmo unted
Ġmic rom
Ġsl ide
Ġsaliv a
Ġdram atic
i oma
se mbl
ĠM N
ĠM yc
Ġle ptin
aus s
ap optotic
Ġtrans ported
Ġdef iciencies
12 4
ĠAs k
Ġso y
Ġsatisf ied
Ġfibrobl ast
Ġag ency
Ġtra ject
ellect ual
ac ute
ĠC ases
up led
ell es
ĠB ackground
Ġper ox
Ġman ually
Ġmin erals
ophosph ate
her ry
Ġpol yclonal
Ġsept um
Ġdeform ity
r c
Ġc iv
ĠF GF
ĠO D
Ġall ocation
Ġmo tivation
trac ted
reed om
Ġrestric tions
ĠOff ice
brid ge
Ġgr id
ĠFact or
Ġstratif ication
Ġburn s
Ġcomprom ise
ack ing
ĠCh o
Ġunc omplicated
Ġconduct ance
azep ine
H is
Ġa ph
Ġrec ycl
Ġsuff ered
Ġlys ine
ĠLow er
Ġcros sover
Ġrobo tic
en vironment
Ġdefin ite
Ġmedi ators
Ġdele tions
Ġtail ored
Ġt ended
Ġc AMP
ĠP ac
Ġcar ing
ĠPr inc
ĠCom plex
b ow
k ins
m us
al is
ib e
Ġflow ers
Ġana erobic
ĠBay es
Ġreserv oir
n um
Ġl y
st ay
ĠComm ons
Ġleuk ocytes
Ġhold s
C re
on ts
ri axone
Ġdis l
ust ine
tro se
Ġmark s
Ġhelp ing
Ġincorpor ate
Ġmonke ys
] ).
wh ile
ĠC lick
ĠR an
ĠN OD
yr rol
b en
Ġan ces
Ġex ert
Ġprotein uria
GT CC
Ġoptim ized
Ġsampl ed
Ġcul tiv
a P
ĠC ulture
ĠR uss
ipher al
Ġfacilit ated
block ers
Ġarom atic
S c
on v
Ġl aryngeal
op ril
tit ude
for ward
Ġcr im
Ġalle vi
Ġsubset s
Ġthromboemb olism
Ġrepeti tive
ĠOnc ology
" \
os idase
und er
Ġrep ression
ĠNot es
ĠPer iod
Am eric
v age
Ġl ar
um s
ĠM G
orm ally
Ġx en
Ġoste ocl
Ġprolif erative
Ġroom s
Ġdiscl osure
Ġdens ities
"\ ""
F LD
Ġp es
Ġl ose
Ġ1 19
Ġres erved
ĠR OC
ore g
erc k
Ġexerc ised
Ġdistinc tion
Ġmamm ary
ĠAdvis ory
P l
ĠâĢ ¦
yr ight
Ġdil ated
Ġautom atically
Ġw r
per ature
Ġcer vix
Ġacet ylation
ed ge
id ney
Ġhypot heses
pir ation
ĠBi om
Ġty ph
ation ally
Ġ1 13
ĠH ar
Ġhe lic
est ab
unc ture
Ġcr ude
ĠSal mon
ĠCalc ium
ĠProvid e
I K
Ġt amoxifen
ĠA ML
ĠK CN
Ġfl uconazole
Ġmen tion
Ġsal ts
Ġturn ed
Â º
on ge
ĠG reat
Ġmod ule
Ġam photericin
raph y
uss is
Ġtoler ability
uv ate
Ġearl iest
mod ified
Ġaccompl ished
Ġag itation
Ġprog esterone
ric k
Ġhemat ologic
eft riaxone
Ġretic ulum
opress in
ĠT riton
Ġ19 60
ĠSign s
Ġureth ral
Ġgem citabine
Ġcamp aign
G EM
m p
Ġg ait
ĠS NA
ĠH en
00 7
ip ot
Ġsimilar ities
Ġpolar ity
Ġtranspl anted
S er
Ġb arb
Ġpar affin
ail ed
Ġrel ate
Ġ24 0
Ġbacter i
ĠMon itor
ĠÎ¼m ol
op rop
ĠM art
ĠR ever
Ġ4 50
io tics
Ġmusc uloskeletal
Ġrefer ring
ĠNe ut
Ġstabil ized
ĠCre ative
end it
ox azole
Ġnew er
GT CT
ĠPA H
ĠQuan tification
da ily
b les
s us
os te
op timal
Ġex it
our acil
ĠAb dominal
Ġcarcin ogenic
Ġargin ine
Ġs aw
). [
rex ed
Ġhapp en
Ġmutagen esis
en ec
ine al
Ġpar al
ĠMD D
ĠGI ST
ĠMeasure ment
in er
on ates
at r
Ġg ate
ĠC U
Ġal anine
ĠG reek
ĠL B
ep ithelial
ish ing
Ġlymph atic
Ġnecess it
Ġcoll apse
Ġ198 3
E GFR
M yc
ol f
ran ul
Ġext inc
CC C
Ġmicro gl
ĠAt g
Ġcall s
ĠDis order
oric onazole
s he
Ġv ibration
ĠN ET
ĠG LP
Ġpres umed
Ġsup ine
Ġdivid ing
Ġprote asome
Ġrequ ested
Ġatheroscler otic
ĠAr th
Ġamb ient
T M
er in
ĠS ter
Ġfocus es
Ġrest ored
Ġrelie ve
Ġfri ends
Ġt rough
Ġpro hib
Ġcyt otoxicity
ĠAr ter
Ġexpon ential
Ġnotic ed
CA N
Ġtranscript ase
Ġaccompany ing
oprophyl axis
i ram
ot ub
ĠR if
ĠG F
Ġel igibility
Ġoptim ize
h l
os tim
ĠC ur
ers ion
Ġne vi
ĠL ight
Ġir rig
Ġmethyl ated
Ġtryp sin
Ġc od
ĠS ep
ĠM ouse
Ġassoci ate
Ġemploy ee
Ġreconstit uted
d b
Î »
ti zed
Ġd otted
Ġn ore
Ġth igh
ĠS K
ĠR B
Ġval ves
AC G
Ġca ff
aps ing
Ġimmunohist ochemistry
u j
Ġsub c
str ong
11 4
ceptib le
zer land
Ġrab ies
ĠP IC
Ġpar am
Ġpartic ulate
Ġserv ing
EM I
Ġamin otransferase
link ing
Ġammon ia
ĠLik ewise
Ġm ere
le tion
ĠA ff
ĠL act
Ġstr ing
ĠX R
me as
Ġvalid ate
Ġcephal ospor
Ġchick en
g ated
ĠT SH
Ġl ag
et rexed
ĠS anta
ram er
15 7
Ġoxid ized
Ġmil itary
Ġhalluc inations
Ġger iatric
Ġb in
Ġ( âĪ¼
ĠB iological
Ġhe ated
arg in
Ġmul tim
lev ant
ycl ic
Ġ198 4
Ġcom mented
Ġres ected
Ġper it
ry th
rel and
Ġexpression s
Ġcirc le
Ġcoun ting
Ġparad ox
ĠZe aland
Ġt ick
ĠC ri
ĠE le
ph ther
Ġrest ore
Ġge ographical
ATION S
Ġappoint ment
ĠRap id
re port
ip ital
Ġk cal
ob arb
Ġcarb oxyl
ĠWith out
ĠIs ol
rows iness
Ġconfidential ity
Ġinterc ourse
Ġequ ity
ession al
Ġfall ing
lod ipine
encl ature
Ġn s
Ġh oney
Ġk m
iss ions
Ġlow ered
Ġ10 2
Ġer up
Ġide as
ĠPT SD
Ġdisrup ted
Ġsuperv ised
Ġd B
Ġh on
00 8
Ġdis par
ĠL og
ang le
Ġhead aches
ĠPrepar ation
Ġb onding
ut ter
Ġ3 50
ond s
11 7
app a
Ġrect um
cephal us
ph ys
Ġam oxicillin
ĠAc tive
ĠCon trib
ĠSm ith
Ġcytos keleton
Ġl ibr
Ġst yle
ĠE vent
ch olesterol
ological ly
Ġer lotinib
int ensity
Ġa ward
Ġcomp etitive
Ġse al
Ġcont ra
Ġmix tures
ĠBl ue
Ġanalges ics
Ġtransp arent
Ġt roc
ĠA CA
ver sy
ĠN OS
Ġconsid ers
12 9
Ġspecial ty
ĠCo unt
Ġutil izing
Ġwithdraw n
atid yl
Ġbund le
s il
Ġl ie
ĠR CF
ace ous
Ġar ranged
Ġqu it
Ġhem olytic
Ġey el
ĠAlex a
Ġace tic
M V
t et
Ġp iv
Ġe IF
ĠA Es
og raft
ys ter
Ġback bone
Ġalcohol ic
ĠSm oking
aud i
Ġinfer tility
Ġnegl igible
B ank
D e
ver ages
ĠN B
ĠG rowth
yn aptic
ĠExper iment
ĠMy cobacterium
ĠPT EN
Ġjud gment
Ġdox orubicin
' '
B l
Ġbr idge
Ġge ometry
Ġhighl ights
+ ]
as hing
os itol
ĠR ob
ĠE MT
Ġexp endit
Ġtransl ational
ĠA SC
Ġgli oma
Ġs ore
ic yl
Ġimportant ly
Ġequ ival
Ġsl ope
Ġaneurys ms
Ġleuc ine
z ema
Ġh ors
op y
em at
Ġcan onical
11 3
Ġmain t
Ġlymph oid
ĠSystem atic
Ġbis phosph
âĨ Ĵ
al ine
up ational
Ġprog est
arm a
ĠSc ore
exp ressed
eli ac
ĠAcknowled gments
. ;
g est
Ġc ow
ĠM ethyl
az ard
Ġang les
Ġconflic ting
Ġcouns el
Ġanticoagul ants
ĠTok yo
ut in
ĠN utrition
de gree
Ġexc ised
Ġindividual ized
Ġdiges tive
Ġpoli tical
ell er
Ġtrans duc
Ġvit re
Ġeukary otes
Ġastro c
ag land
Ġph age
ĠAn gi
AT IC
erc ise
Ġgra ms
ĠDep ression
ĠDM EM
Ġradiograph s
Ġinnov ative
ĠC Q
ĠP ossible
ox etine
Ġz idovudine
rin ted
Ġlig ation
Ġfacilit ating
ĠÏ Ħ
Ġapproxim ate
alb umin
Ġpari etal
h ors
Ġal lo
ĠRe al
GG GG
Ġbr id
Ġsac r
it ron
et uximab
Ġsh RNA
Ġover t
Ġoptim ization
ĠRoy al
H z
ĠT ob
oin form
Ġpo orer
igm oid
Ġmir ror
Ġhyst erectomy
i ers
p ost
min imal
Ġanti platelet
oth orax
ang itis
Ġspread ing
Ġautom atic
Ġhomogene ous
ro st
ĠS em
Ġad missions
ĠE astern
Ġam en
AT TT
Ġve ter
ĠInf ections
ĠReg istry
Ġc il
ĠD ist
Ġdetermin es
cept ors
r ib
Ġin organic
ĠA u
ĠH sp
rop r
Ġphosph o
Ġmuc us
Ġpuls es
ĠLeu k
Ġan ne
Ġm ist
Ġas tron
am i
Ġdis tilled
Ġimp ly
Ġam put
Ġgener ates
CT A
ĠRe v
GT C
Ġcri tic
Ġtelom ere
Ġs aturated
Ġs lices
Ġw inter
ar se
ĠS tim
ĠK R
Ġdes ire
Ġany one
Ġphys ics
Ġte a
Ġoff ic
Ġsecre tions
Ġintro duce
CM V
Ã£ o
A t
ag er
Ġmy opathy
Ġclim ate
Ġc ass
ol imus
ĠS leep
ĠM agn
Ġsp ores
Ġmain stay
Ġaccess ibility
yr id
Ġsut ures
E l
os itis
up take
Ġdi am
Ġradi ol
Ġq PCR
Ġswit ched
Ġsor ting
Ġpercenti le
e a
u a
Ã §
od ic
ĠM E
ĠN AC
Ġcolum ns
Ġhyd ration
Ġrod ent
p en
el le
Ġl ute
CT TT
Ġestim ating
Ġbre eding
Ġadhes ions
Ġsom at
Ġju ice
Ġsymmet ry
Ġcannab is
ellig ence
p inephrine
ĠB CG
Ġcolon ization
Ġnod ule
nol ence
Ġc ab
Ġre activation
rec ogn
Ġcle ft
tid ase
Ġan orexia
ar ting
om od
el es
ist ries
Ġphosph orus
Ġcirc adian
Ġread er
ĠImp act
Ġplex us
on i
Ġc ues
Ġm Ab
Ġh s
ĠI reland
pec tives
ĠG AD
ear ly
Ġele gans
Ġincorpor ating
pers on
Ġanth rax
empor ary
nR H
Ġimbal ance
ĠM U
ĠL S
eren t
lo op
Ġintra vascular
Ġantic ancer
Ġcarbon ate
Ġtet ra
ĠÏ ĥ
Ġfair ly
er ia
Ġg rate
Ġwork sh
ĠFran k
Ġperiodon titis
Ġd raf
Ġpro pri
Ġr pm
Ġdis inf
ĠR E
ĠB enz
Ġra ys
Ġimmun ost
ĠEx cell
MP s
Ġprefer ably
Ġsusp ended
Ġverte bra
or se
or tium
ab ase
Ġcom ing
ĠF OX
Ġwe ighed
one ph
Ġend ocarditis
Ġmicro c
Ġdeliver ing
ĠSome times
anz apine
Ġp ill
Ġp ole
Ġf arm
ic ate
ĠC irc
Ġdef ines
Ġtub ulin
ĠNon etheless
ĠBet a
g lycer
ĠS BP
ĠD T
ĠB A
ĠB le
ĠU b
Ġrel ies
Ġrandom ization
opath ies
resp ond
ĠPub Med
Ġlegis lation
at tered
Ġre ality
ĠO T
lec tric
Ġund ers
13 7
Ġseem ed
Ġcigare tte
d ered
ag ent
eng er
Ġcho osing
Ġwa ist
Ġcoord inates
Ġpi eces
ĠWhere as
Ġattit ude
F M
f ac
Ġe ther
ĠT DF
Ġinf usions
Ġinv ari
par amet
AT AA
Ġpass ing
Ġbronch ial
c il
re on
Ġm A
ĠC all
ĠC HO
Ġins ect
uct ose
Ġconf erence
rit onavir
Ġsequ elae
ĠAT M
Ġtermin us
ĠQALY s
ĠNurs es
ĠSwit zerland
Ġb ite
el ve
Ġap o
Ġdem ands
Ġhem angi
ĠER K
Ġtom ato
Ġradical s
ĠQuestion nai
s am
id el
ĠIn str
zym es
Ġreplic ate
ĠItal ian
ofl urane
ĠRout ine
Ġsh apes
ĠG E
ful ly
Ġinflu encing
Ġlink er
hyth mic
Ġstrict ly
Ġst arch
Ġad opt
Ġcor onal
Ġpresent ations
Ġpack aging
ĠPath ology
ĠR as
Ġpos ts
ĠK le
co res
tig ma
ĠLe g
Ġlact ation
d ig
s ymb
re th
Ġnot es
tig o
ĠImmun ohist
onucle ase
ĠClin icians
lamy dia
a rest
t ol
it ch
un tain
ĠD E
âĢ ¢
Ġme at
ĠV L
Ġcomb ine
Ġemphas ized
empor al
H CV
s ome
ati vity
ere mia
Ġch aper
Ġsk ill
Ġsal vage
Ġbiological ly
Ġc uff
Ġth y
Ġchem orad
Ġrespons iveness
Ġdil ation
ĠImmun e
osyn thetic
ver tebral
Ġinc on
par ts
Ġexpl oration
ash i
Ġneopl asia
ĠSI RT
r ations
ab e
ĠCl ostr
Ġfail s
Ġfluctu ations
Ġsav ings
E n
b ach
Ġb ull
ĠA CR
ĠA QU
ter isk
um ina
Ġwhere by
eu tics
AP P
Ġsound s
ĠDa vid
otherap eutic
it in
ĠS and
ĠG i
Ġhist ologic
Ġarter i
Ġp ose
Ġw k
ul ators
ĠS u
Ġex port
Ġmal formation
trans fected
Ġspl enic
Ġqual ified
Ġsun itinib
y es
Ġsub tle
Ġet anercept
Ġcalc ulating
200 2
Ġkin et
Ġlys ed
Ġundes irable
/ +
m el
Ġs old
op ag
Ġmicro vascular
Ġred und
Ġadoles cence
Ġsurround ed
Ġpuber ty
at ran
ant adine
ĠL R
Ġred ox
Ġgel atin
ĠProf essor
G O
Ġis chaemic
Ġpar tition
Ġsoci eties
Ġdyst rophy
in iti
Ġl aryng
ann el
Ġrespons ibilities
Ġcontr ary
tt es
ĠOut come
h arm
Ġc ram
ĠC CA
Ġperiod ically
âĢ² )
Ġp od
ol ding
ĠC orporation
Ġtit anium
Ġsummar izes
Ġaggreg ates
Ġstation ary
C d
D O
Ġd rowsiness
Ġf entanyl
ĠA yurved
ion ine
ĠM ig
rit in
Ġphot o
ĠApp ro
Ġsi RNAs
Ġobst etric
Ġpoin ted
f igure
ol ars
ĠC BT
ĠD utch
Ġdis agree
Ġinf rastructure
ĠW C
Ġmic row
Ġur g
ĠAr ch
ĠRad iation
Ġillustr ates
Ġsor afenib
Ġimmunohist ochemical
Ġs emic
id ym
Ġex tern
Ġsur rogate
01 0
Ġtest es
Ġundergo es
ĠDV T
Ġl anes
Ġmed ically
Ġed ited
Ġesc ape
ut or
Ġbe verages
Ġpl acental
ĠV ascular
lu tide
Ġm oney
Ġac quire
Ġpre clinical
Ġcare er
Ġgo es
Ġ29 3
Ġneph ropathy
Ġannot ated
f ive
k o
rom agnetic
Ġad diction
ram idal
ĠOR F
ĠST D
Ġreflec tion
function al
Ġtib ial
Ġprednis one
Ġdesc ending
ĠSalmon ella
G l
in ia
Ġb ad
ĠH all
ĠG W
Ġpor tions
ĠCM L
ĠJoh nson
Ġgal act
Ġdestro y
m ortem
p red
Ġcor onavirus
13 4
elf are
ĠPost operative
Ġpert ussis
Ġstrom a
Ġtriglycer ide
Ġint ellectual
Ġsc r
Ġ7 50
Ġprot ecting
Ġcontr al
Ġphot ons
R F
b urn
ir ms
ĠM iss
ĠD u
ĠB AT
ren z
Ġ. ..
Ġmedic inal
Â® ,
Ġsubstit ute
lyc aemia
Ġren in
igen ous
Ġinver ted
) *
i en
es ity
Ġpro inflammatory
uc l
ĠD U
ph y
ĠL ist
Ġgra du
ĠTr ust
Ġdig ested
i oid
he ter
on ed
Ġc hel
ĠT d
ĠH TS
ĠR D
ĠO d
ord ered
Ġauthor ity
Ġcereb rospinal
Ġreconstruc ted
G P
b ing
b uff
ĠF ab
ain t
rap ine
ech ol
Ġphys iologic
Ġoptim um
Ġpap illary
TB I
Ġneurode generative
P ugh
Z A
Ġs an
Ġdis k
Ġpr ices
Ġro ad
Ġcol ored
ĠPh il
effec t
Ġdisco ver
Ġclaim ed
g ression
Ġp ills
Ġat rium
ĠD il
vi an
ugh ter
ĠK a
ĠAn a
Ġsol v
Ġhist amine
Ġeng aged
Ġeryth romycin
ĠCent ers
oter ol
Ġ ),
ĠG ly
Ġdiff raction
ĠUn known
Ġcycl ing
ĠGen es
Ġprost hesis
Ġhar v
ĠProt ection
acchar ides
Ġveget ables
ĠP eg
ĠF if
ĠR oche
Ġplay ers
Ġshe ar
ĠSA H
ĠGS K
Ġoligonucle otide
en ib
os yl
ce in
Ġcon ception
Ġsub cl
Ġreview ers
ĠQ U
Ġpsych o
romb opag
Ġvag ina
Ġrecording s
Ġconsolid ation
ĠL E
Ġar c
Ġconstit utes
Ġinterrup tion
e Ag
Ġm erg
ĠC RT
ĠS ensitivity
Ġpl acing
Ġk illed
Ġpres criptions
Ġrepresent atives
Ġbrain s
Ġenti ties
Ġrefr active
tur nal
ĠAQU ATIC
Q T
z alutamide
it able
Ġd ying
Ġb romide
ĠS LC
ĠF ree
Ġpl ated
13 1
Ġmel ting
Ġfer mentation
Ġexclus ive
otr acheal
Ġinherit ance
K K
ro vascular
Ġor ders
ĠE ight
ĠPl an
ipit ated
F I
us hed
ĠA E
Ġmon omer
Ġimmun ogenicity
Ġer a
lim iting
ĠPAR P
Ġpem etrexed
Ġlibr aries
$ \
C B
Ġw rist
rom a
Ġco operation
ĠMS M
Ġrecip roc
on ent
Ġb at
ĠUn ion
ĠEx ecutive
AR Ds
Ġpal ate
Ġexce eding
c alc
e valu
ax ial
Ġ12 8
14 6
Ġed itor
ĠAt tribution
ĠUs ually
ĠSur ve
ĠNF AT
Ġexce eds
phil ic
Ġasymmet ric
Ġcontral ateral
Ġb ony
ĠWh ole
Ġlink ing
Ġbiom edical
chym a
Ġenco unter
R oche
Ġs ister
ĠG B
Ġev olving
Ġperipher y
Ġign ored
Ġcovari ates
ĠLic ense
Ġundet ectable
Ġfra il
C K
ĠT EM
ĠR ib
ĠB u
ĠIm medi
Ġequ ality
Ġaccess ory
Ġkey words
Ġgrain s
Ġduod en
Ġan is
ur ium
am ically
ĠE c
ĠExam ple
assemb ly
ĠDifferenti ating
ĠP GE
ip razole
Ġsp ite
Ġintra ocular
Ġlat est
Ġchol angitis
Ġmening ococcal
ĠVacc ination
Ġm umps
th is
Ġr an
Ġac yl
Ġres ist
ant ine
Ġprol apse
oscop e
be an
ĠPP E
ĠIntern et
Ġhydrox ide
F E
Ġv ill
ĠF BS
iv ity
Ġcur v
ĠSer ious
ĠInhib ition
Ġtrunc ated
Ġlymphaden opathy
Ġt ram
Ġc ard
Ġf u
ĠF ew
ens ory
fold ed
Ġdegrad ed
ĠMor tality
Ġenab led
Ġcaff eine
S EM
i agen
o ured
ĠG raph
ĠL L
Ġel uted
Ġtub ules
Ġprogress ively
Ġretro grade
Ġbic arbonate
Ġwel ding
Ġrelig ious
Ġpacem aker
ic ac
ac ity
im aging
Ġab rupt
yt he
ock s
Ġamong st
Ġemerg encies
odon tic
ĠIS BN
Ġshif ted
a el
f ast
Ġsign ature
Ġcor nea
ĠÎ µ
17 0
Ġaden omas
Ġsubcutaneous ly
Ġpoll ution
Ġteac hers
Ġbatter y
M an
a emic
Ġal iqu
yl es
Ġdes criptive
ok er
Ġexpl os
ole mia
ĠEffec tive
Ġanalog ues
Ġdy ne
I Q
ĠT ai
Ġdis hes
Ġhe ar
and a
Ġdiff ering
Ġes cal
Ġso ap
ĠY et
Ġulcer ation
OM M
Î µ
om atic
tic k
her ical
air y
ĠTA AT
yrrol ate
ic idal
ĠO N
ĠK et
Ġcop ing
max imum
Ġcandid iasis
Ġcompr ise
Ġa ids
end icular
Ġdet achment
Ġidentif ies
Ġsuc tion
oster ior
trans lational
ĠOr ig
Ġseed ed
Ġoligonucle otides
Americ an
obarb ital
n y
se lective
19 0
Ġpost ulated
Ġair ways
Ġdown regulation
ĠStand ards
Ġsph incter
Ġheavi ly
et ent
ĠC amp
ut ation
ub ated
Ġline ages
Ġcateg orical
Ġdeple ted
Ġdiver gence
k ary
is en
ce an
Ġk illing
Ap plied
S L
Ġ1 12
ĠE con
ace tic
Ġpolym ers
ĠAmeric ans
Ġflex ion
Ġec zema
Ġamyloid osis
Ġbus iness
m olecular
ĠP resent
ĠL ew
Ġsc aven
Ġpres erve
Ġoccup ancy
ĠMR HD
pers onal
Ġdistric t
p olar
Ġb inary
Ġat tain
ĠG DM
Ġpharmac ologic
Ġ198 2
Ġtit er
Ġlearn ed
Ġimmunoprec ipitation
Ġc ocaine
Ġm aster
Ġf reedom
il st
ĠS audi
ver t
Ġman n
Ġend oc
Ġfl ask
ĠPer ipheral
Ġstabil ize
sec ond
u tious
Ġs outhern
ter ious
ĠP ak
00 9
ad ication
Ġar gue
ĠâĢ ¡
Ġher b
200 1
Ġear th
ĠInter ventions
Ġcoup les
Ġopin ions
ĠEnvironment al
phther ia
Ġkinet och
O x
W R
en op
ĠT ypically
id ate
ĠD yn
ĠW ind
ĠK v
Ġlong est
Ġcost ly
Ġpsych otic
ĠMR SA
ĠEch ocardi
2 20
I U
Ġre ally
Ġto w
Ġon t
ĠE very
ĠN ic
lu ent
Ġpost operatively
Ġevid enced
Ġdisapp ear
Ġ ros
on it
Ġint ent
Ġun e
Ġfl ushing
Ġexceed ed
Ġaccid ents
v entricular
Ġp ick
ĠC at
ĠS oci
ĠP AT
Ġpredic ts
Ġide ally
Ġbiom ass
ĠSur vival
Ġclar ithromycin
ĠSequ ence
Ġrevascular ization
un ch
Ġim ag
rec ommend
Ġmo ves
Ġend ocytosis
Ġadhes ive
ĠFA K
Ġdrople ts
Ġf alc
Ġn al
id erm
Ġv ibr
ĠE PA
Ġinter im
Ġthous ands
Ġ( *
uc cal
ĠP it
ox one
Ġsm art
Ġsus pect
Ġ13 5
ĠOn line
ĠMed ication
AS H
Ġpul p
Ġang ular
Ġdrink s
Ġarri val
Ġspor adic
Ġspir it
ic it
ĠL H
Ġpl ayed
irm ed
ĠPl ant
Ġweak er
Ġconcurrent ly
Ġingre dient
Ġenroll ment
m C
Ġto l
Ġinc is
Ġser op
sy stem
Ġcharacter ised
ĠSp ain
Ġmedi ating
orth y
Ġterat ogenic
Ġo ils
Ġh ams
Ġv ocal
Ġnon invasive
Ġaut opsy
ĠUn ivers
ishman iasis
P er
d t
at riptan
ĠC x
ĠD D
Ġtrans iently
Ġph yt
ĠTr ich
Ġsil ica
Ġtet racycline
Ġmob ilization
Ġ2 20
pec tively
Ġcl ade
ep ing
Ġimm ig
Ġest rogens
Ġsched ules
Ġclon ing
P BS
b lood
Ï Ħ
Ġs end
Ġe ut
Ġcon stric
Ġv ox
ĠR ay
Ġle an
ĠTh omas
ĠJ NK
Ġhuman itarian
Ġstruct urally
Ġca pecitabine
Ġca utious
Ġer adication
Ġlate x
Ġstret ching
ali platin
o o
ac cept
pl ates
Ġmet ronidazole
01 5
rec tion
Ġret ros
ĠInf ectious
Ġpen is
Ġsqu ares
Ġpolyp eptide
Ġarch ae
Ġantipsych otics
Ġastroc ytes
in dic
or h
or ig
am azepine
ĠD ie
act one
ĠL et
Ġph ilosoph
Ġset up
22 3
amin ergic
Ġcat s
Ġrepeated ly
oderm a
Ġwavelength s
atell ite
it ur
it onin
id ol
ĠK E
Ġcontain ers
Ġvar icella
Ġdur ations
Ġvertebr ates
A V
H b
s urgical
ĠI B
Ġv on
op ause
ud in
ĠF ram
Ġso fosbuvir
Ġconduc tivity
Ġpref rontal
ĠCor relation
ĠRel ated
rip iprazole
ĠFed eral
F l
H ER
} $
ing e
abil istic
Ġtransf usions
inn itus
ĠLim ited
Ġdisulf ide
Ġtrans gene
Ġ12 3
AA CT
arb y
Ġven om
Ġmach ines
Ġradio active
Ġt urb
um inal
od opa
Ġsurg ically
vol ume
Ġmarket ed
E q
h u
in ferior
on om
Ġto ld
ĠS ing
ĠS OD
ab sorption
ĠP olic
ran dial
Ġtr action
ER K
Ġill umination
Ġmus h
Ġconcept ual
Ġepiderm is
Ġinoc ulation
ĠQuestionnai re
Ġa fl
ic ans
ĠP ort
ri an
Ġsub cellular
Ġsc aling
Ġblock er
Ġlig ase
Ġfollic le
Ġmetall ic
f onts
CC G
Ġprop ofol
Ġsci ences
Ġrh in
ĠUp per
Ġcereb ellum
Ġdoub t
ythe rapy
R O
s ignificant
Ġf ate
Ġl ining
Ġac oustic
ĠD uration
ĠE ryth
ĠG all
ĠG nRH
Ġadjunc t
ĠColl abor
u ation
Ġin activ
ĠT ex
ig atran
ter one
ĠS a
Ġal d
ĠR EP
Ġdef i
Ġdisc arded
Ġstress es
Ġacet aminophen
ĠHB eAg
enal idomide
ĠAckn owledge
b et
f atal
Ġin ac
ĠH an
ad renergic
Ġle ct
av ig
Ġregim e
ST AT
Ġax illary
Ġshe ets
ĠDifferen tial
Ġinterfer ing
S i
c n
an asal
ĠD Q
Ġde aling
ĠL u
Ġk its
Ġmac rol
Ġdele terious
Ġcereb rovascular
Ġhol ding
Ġreconstit ution
ĠGovern ment
y el
ĠT or
Ġ3 60
ill ip
form s
af t
11 8
pre dic
Ġintro ducing
Ġexplicit ly
Ġcurric ulum
ĠDat abase
H y
P ET
Ġad here
Ġ19 50
Ġser a
Ġref ine
Ġchem o
ancre atic
Ġgastro enter
] {
Ġne oplasm
ond yl
Ġcatheter ization
ĠSur ge
Ġcommunic ate
ĠUr inary
S tr
Ġt ab
us ter
Ġwe aring
Ġpers pectives
Ġtra ditionally
Ġoff set
Ġbacter ium
ĠBios ciences
al anine
Ġm ult
st one
ĠR AN
ph ig
ĠL in
Ġcos metic
Ġfram es
Ġconver t
Ġnod ular
Ġat opic
Ġtr aces
Ġdiss ected
through put
c ode
g reek
Ġan ion
ac Z
Ġbe ats
Ġsh aped
ch ild
Ġwhe e
ĠQ RS
Ġaccess ed
Ġartif acts
Ġasc ending
etermin ed
b sy
Ġc och
up greek
ys ym
Ġun ivariate
ĠPro cess
Ġlymph ocytic
set length
ams math
ams symb
ams fonts
ams bsy
rs fs
idem argin
Ġpi ece
phen yl
document class
math rsfs
+/ +
Ġconven ient
odds idemargin
was ysym
}{ -
Ġantis ense
P M
Ġp ad
ac yl
ol k
Ġins ects
ĠZ hang
Ġder ive
ĠLapa roscopic
IV E
Ġphot os
gal act
ĠC FS
Ġde eper
Ġdep ress
Ġj ejun
AR CH
Ġhydro cephalus
Ġswe ating
Ġtac rolimus
d ated
s ign
w ood
Ġto t
Ġth umb
ĠD G
ĠR MS
ĠIn ternal
ers ed
ĠB CR
Ġne arest
Ġcomple ting
Ġimmun ore
ĠRes ource
Ġinflu x
Ġconstitu tively
ĠGluc ose
e ared
p n
Ġp umps
ist an
Ġlab els
Ġsugges tions
Ġendothel ium
Ġemphas ize
Ġiod ide
Ġmutagen ic
ĠScot land
or ge
ar an
tic ide
ĠH um
Ġsign ed
Ġeff icac
Ġcardi opulmonary
amil ial
Ġprefer able
Ġsubstit uted
ĠConsider ations
Ġreproduc ibility
Ġmism atch
Ĥ ¬
Ġf en
ĠI de
ĠS ources
op rim
Ġneigh b
ati o
og litazone
Ġper ceptions
Ġco hes
rec tional
Ġstri king
Ġaccel er
Ġinoc ulated
Ġsolub ility
Ġd ac
ĠT u
ĠP N
am id
st yle
qu ar
ĠG el
13 9
Ġreview ing
Ġaccess ion
rogen esis
C ell
Ġp anc
Ġb er
ur in
per idone
dic tions
Ġcontinu ation
Ġfat her
Ġhoriz on
Ġc i
or ically
ent re
Ġpro jections
Ġmon ol
20 2
Ġfrag mentation
Ġge ometric
Ġrh abd
Ġclean ed
ĠProced ures
N ew
ĠH CT
Ġch imer
ĠB ars
ĠG IP
14 2
Ġparen chyma
ĠHA V
Ġdiure tic
Ġsymb ol
Ġdebr is
Ġdyne in
c hers
ĠH H
ĠR os
low er
ind amycin
other mia
ĠMet abolic
Ġcontro versy
Ġgangl ia
grad ed
Ġt ear
ĠL y
ap ril
mit ting
Ġamb ulatory
ĠDAP I
n iotic
Ġtra v
be it
Ġion ic
Ġopportun istic
Ġfollic les
Ġstret ch
Ġcred ited
Ġperp endicular
ĠExcell ence
J oh
di abetes
ater one
ust ered
Ġremain der
uit able
Ġbronch itis
ĠIncre asing
Ġonc ology
Ġreproduc ible
n ov
Å Ĥ
it ely
Ġas certain
ir aterone
ĠB T
ĠB acterial
Ġaddition ally
ĠOR AL
ĠSp ray
ĠSch w
ĠSubsequ ent
Ġtalk ing
Ġdiscol oration
y an
Ġm atern
Ġsub pop
ox ins
Ġdevelop ments
ok ers
ron t
Ġlab elled
hyd rates
Ġencour aging
Ġcounter parts
Ġrig orous
Ġapproxim ation
Ġt au
ĠT SS
ĠA SA
ph armac
ĠFig s
Ġsulf onyl
Ġtransport ation
Ġju venile
Ġcommit ment
C NT
o ce
ĠM ur
ĠL ast
ĠAn t
Ġsaf er
AG C
Ġprost agland
Ġauto antib
Ġsom nolence
Ġp ink
ĠB AL
Ġrec re
Ġab brevi
ound s
Ġcol lege
ord ant
ĠAd oles
less ness
Ġdistinc tive
ict ures
ĠHyp ersensitivity
v ular
ĠM us
AA AA
cept ual
Ġvas oconstr
Ġcompens ated
Ġwr ong
I t
ol y
ff ee
ĠR heum
ons cious
ĠK idney
ĠRec e
Ġdifferenti ating
Ġtit le
ĠHyp ot
Ġhydrox yl
ĠDen mark
Äħ ÃŃ
Ġcircumc ision
, (
Ġh oles
ĠA ud
ĠM CP
ĠF GFR
Ġ7 00
Ġhyp okal
ĠAc id
ĠZ NF
Ġcatal yst
fe ed
Ġpix els
Ġscaff old
c ience
Ġv ancomycin
op ed
ĠR ational
Ġrib osome
Ġcytos ol
S K
o or
w a
ĠC Y
ĠF requency
ĠE ST
Ġtr ach
af e
Ġvis ually
Ġconsult ations
ĠMy ocardial
Ġattrib utes
Ġrub ber
Ġimpair ments
F C
Q L
Ġs in
Ġb rom
Ġor bit
ĠF DG
ĠF ACS
ĠB inding
Ġpl ain
Ġsp ik
Ġshort ly
ĠPA K
Ġhall mark
Ġelic ited
Ġs outh
ri z
Ġcont our
de velop
Ġgra vity
Ġstrong est
ocy st
Ġprost atic
Ġbur st
kin ase
Ġlys osomal
ĠTa q
Ġalumin um
Ġo ocyte
ĠIn trac
Ġk ill
ĠJ F
CT GG
eth oprim
ĠSyn onyms
Ġapplic ability
Ġexpand ing
Ġoverexp ressed
ĠTherap eutic
Ġdisinf ect
Ġa fore
il es
ĠC ode
ine ering
Ġent ers
Ġgain s
Ġden ote
c arbon
al in
ĠS outhern
Ġr ising
Ġfound ation
Ġdown regulated
Ġsumm er
Ġconst ants
ĠAB C
Ġaccel eration
ĠHCW s
kines ia
e le
f em
t z
Ġt amp
Ġre uptake
og a
Ġprior ities
Ġansw ers
Ġdiscrep ancy
Ġmicrobi ota
Ġsafegu arding
k b
Ġg a
ĠH ome
av a
Ġprim ing
Ġdemonstr ation
Ġpur ity
ĠOther s
Ġtraff ic
Ġnoc turnal
Ġtrop ical
F or
at onin
Ġd ot
ĠT aking
ĠL es
Ġinv ent
ĠSt ress
Ġprot ects
Ġsurv ived
Ġpass es
Ġrecurren ces
ĠApp ropriate
ĠCX CL
ĠClin ic
Ġc oded
Ġp lease
art z
Ġstatis tic
ott on
Ġcompet ent
ĠComb ined
Ġrecycl ing
p rin
ĠT ypes
ĠR EL
ĠB or
Ġspec ify
ĠRes ources
Ġtransl oc
Ġec ological
Ġmicrob iological
Ġquar ter
ĠMex ico
Ġsacr ific
M AP
i idae
im eter
ĠD an
opath ology
ĠEth ical
Ġhypothal amic
Ġsolv ents
Ġw ent
ĠT s
enti lation
co upled
Ġma ize
Ġvi rologic
ĠLe ad
ĠIC S
Ġliter acy
ĠInter vention
ĠIniti ally
Ġaz ithromycin
Ġscar ring
ĠJ ames
ĠAm p
othel ial
Ġduod enal
Ġneurotransmit ter
onv uls
Ġre ass
ul ary
ĠH ave
ĠF AC
oid osis
Ġglyc ine
ĠG GTT
Ġsit ting
Ġexpl aining
opath ological
Ġcarcin ogenicity
Ġexhib iting
ĠNor way
ĠDec reased
Ġchol est
Ġaug mentation
Ġfoss a
Ġexpendit ure
oneph ritis
Ġafore mentioned
Ġc ylind
ĠT reat
Ġl i
ov aqu
AL L
ĠInf ants
Ġprote olytic
Ġneo adjuvant
Ġsen ior
h om
ar ial
om atosis
ĠF N
Ġinc omp
Ġcomp act
Ġne arby
iv a
Ġmod ules
Ġout flow
âĪ Ĩ
Ġantic hol
Ġinternal ization
ĠMedic ines
inter vention
Ġhapp ens
Ġmaxim ize
____ ____
Ġoscill ations
ovaqu one
i pt
n et
in one
Ġsp i
ĠHep at
Ġalign ments
ĠAdv anced
Ġvasc ulature
Ġsul ph
ĠMem bers
Ġmod ulated
rec ision
Ġdef ault
trans cription
Ġviol ent
Q u
f p
Ã ł
as i
Ġcon tig
Ġdis ab
ber ry
Ġmo tiv
Ġins oluble
ten se
Ġgener ations
ĠAc tivation
Ġtumor igen
ĠDes cription
ipp ed
Ġpolar ized
Ġd engue
ul ins
av or
Ġhyp on
Ġmicro environment
Ġcontinu ity
ĠReg ional
W S
e ed
Ġd ots
om atis
ĠN V
Ġcl ock
Ġgen otyping
Ġpers ists
ĠCA CA
troph ot
ĠRel ations
obacter ia
Ġdy es
ĠTRP V
res istance
ĠP et
Ġex ecutive
til lation
Ġsyn apses
ĠCh ange
Ġorig inated
Ġprop ensity
arr ant
Ġtempor arily
Ġsun light
pol y
T r
e y
p osure
Ġn ail
ot ax
Ġg ating
se y
Ġinv est
Ġcirc uits
ĠAT F
ĠOf ten
Ġov aries
ĠMA O
Ġolig o
elt amivir
Ġever olimus
Ġpsor iatic
Ġelucid ate
N DC
Ġsh rink
ĠE GF
Ġsub family
Ġen ergies
cur s
Ġvisual ize
ĠCont act
Ġlum inal
Ġconstitu ents
Ġdispers ion
G MP
r als
ĠT om
ĠT ypical
il it
ĠN ow
ĠL N
oph ores
Ġgrow s
ĠWh o
Ġca ve
Ġcoll ateral
Ġconsum ing
ĠMR D
sub unit
ĠRo bert
blast oma
Ġaccid ental
p ted
Ġs tigma
ĠA J
ter ase
Ġpl ug
Ġhydro ly
Ġatt ended
Ġsem en
Ġgraf ting
Ġfavour able
Ġenvelop e
0 25
Ġd ar
ich i
Ġco at
Ġra ises
Ġpel let
Ġperit onitis
or um
Ġst ably
lud arabine
26 5
Ġdys lipidemia
ĠComp any
Ġutil ize
Ġprogress es
Ġneighbor ing
retin oin
d am
Ġcon e
ĠI MP
ĠP CA
ĠM ED
ĠN an
Ġfol ds
Ġinv ited
Ġprob abilistic
Ġresult ant
Ġunc onscious
Ġcontraindic ation
Ġfetus es
ĠHF D
Ġthromboemb olic
ĠReduc ed
identif ied
Ġd ib
ĠT ests
il ly
Ġsc attered
dep leted
Ġstandard ised
Ġz ip
Ġmanufacture d
vit real
Î¼ m
ĠCTT C
Ġtun nel
^ {
a ise
Ġconf irms
Ġïģ ®
Ġendometri osis
d U
et ts
Ġv oriconazole
ĠF D
vi renz
ron ectin
fa virenz
Ġdisadvant ages
umines cence
Ġciv il
Ġm u
ĠG re
Ġsuper oxide
Ġarm ed
Ġsplic ed
ĠN N
Ġnot ing
Ġun met
Ġdes criptions
Ġ19 79
Ġins p
Ġfunction ality
Ġhyp ers
Ġcap abilities
Ġenc l
Ġ198 1
Ġproblem atic
Ġdiamet ers
Ġcompens ate
ĠElev ated
U s
e al
Ġs agittal
ul ae
ol ves
tic les
lo ok
Ġoc t
18 4
ĠSe ven
ars h
Ġresearc her
ĠProtein s
ĠNucle ar
ur ons
Ġover w
Ġra ising
SP SS
Ġneurop athic
usp id
Ġcareg iver
] -
s ized
Ġw arrant
Ġg ef
ĠS ar
ip asvir
Ġsol itary
Ġinj ectable
Ġsens ors
Ġtub erc
Ġalong side
Ġnit ro
Ġpericardi al
ĠTRA IL
Ġlid ocaine
ipar um
h ort
Ġb end
Ġv inyl
Ġab iraterone
Ġmulti f
yg d
ĠIN R
Ġindepend ence
Ġland mark
ĠPen icillin
Ġelucid ated
Ġpiv otal
Ġd ocking
Ġf iring
og s
Ġcomp os
anc ers
Ġcar go
ov entricular
ĠAc tivity
ĠCr ypt
Ġtry ing
in otecan
ĠT AG
ĠM is
pl ing
Ġstr icture
Ġend otracheal
Ġbi os
ĠRes istance
ĠAss ay
Ġchol angi
c ox
Ġo ss
Ġ( â
ad in
Ġob l
ĠAl t
Ġser ocon
Ġconf used
Ġlat tice
Ġech o
ĠLevel s
M y
ĠT CA
up s
ĠH G
Ġmin i
Ġposs ibilities
itor ies
Ġintra uterine
int ment
Ġdim ers
ĠNe ither
Ġadjunc tive
N L
Ġc ensus
al one
ĠN J
ĠB ow
Ġreg ister
Ġhyp n
201 3
Ġinterrup ted
ĠNAD PH
Ġc ite
Ġst ores
ĠB ang
ill ar
Ġbi ased
ĠMy o
Ġdele ted
Ġsuppress es
ĠTex as
Ġl ing
ĠA ch
ĠA min
ĠC av
Ġch am
ĠB ot
ĠL ater
Ġcle ared
Ġorgan ogenesis
over ty
spec ial
enz ae
Ġphot ore
Ġanalog ous
Ġcondom s
ÃĦ Ä
ĠMich ael
er gen
at ri
Ġn arco
âĢ ¡
ys titis
Ġcl av
yl ine
AT E
Ġorgan isation
Ġpan ic
ĠAL K
Ġlapa rotomy
ATP ase
ifi ers
Ġni acin
i ologists
ĠS en
Ġal ive
ĠP IP
ĠM erck
ap agliflozin
Ġsp herical
Ġorigin ating
ĠCP AP
Ġammon ium
Ġtar trate
Ġnevi rapine
f oot
w in
ĠN G
ĠB ra
14 8
18 1
ĠSp anish
Ġprepar ing
ĠMH z
Ġnore pinephrine
b es
Ġt s
Ġre ward
Ġcon vers
Ġrece ives
Ġhypot hes
Ġbase ment
Ġillustr ate
ĠBD NF
Ġpix el
Ġeros ion
P B
in amide
Ġb act
ĠP PV
ĠE L
ĠE ss
Ġsub optimal
Ġmet oprolol
oph an
Ġnucle oside
Ġnecess ity
ĠNA FLD
ĠFer tility
ĠHEP ES
p al
ĠM IC
ĠD ar
ĠV e
ĠAl ber
CA P
pro f
omet ers
Ġket oconazole
ĠNum erous
Ġatmosp heric
Ġcataly zes
Ġfalc iparum
v able
ĠS qu
reat inine
Ġcl ustered
Ġqu ery
Ġsyn ov
estab lished
ĠTai wan
G r
Ġo esophageal
is tically
il is
ad el
tim ibe
ĠAN C
app ed
Ġglob ally
ĠMod ern
oll en
ĠMain tenance
Ġvertebr ate
Ġbiofil m
im ens
ron i
Ġadv ise
Ġaltern atively
ĠMan ual
Ġradio activity
ĠOcc upational
Ġhemisp here
p idem
p resent
Ġo roph
Ġre in
ac ia
Ġg ad
tr in
Ġepid idym
Ġx yl
ze timibe
ĠPregn ant
oxif loxacin
Ġna ive
Ġimmunobl otting
' )
f illed
j e
Ġo m
Ġp he
ic on
ra bb
Ġinf ancy
Ġrec alled
ard less
Ġend oplasmic
Ġfr uctose
ĠAR DS
Sm ith
ĠSwed ish
Ġmicrow ave
M c
V s
Ã ¢
Ġc yclo
Ġin versely
oc us
ĠM W
ĠW AR
ĠL ack
Ġmod ulating
Ġanti hist
Ġmeas urable
ĠJ ose
Ġend ors
az an
Ġdetermin ant
Ġrecogn izes
Ġreason ably
iber cept
P rot
p tive
ol imumab
ati t
Ġinf erred
ox il
Ġsl ice
ĠGene tics
ĠMet abolism
Ġconstit utive
Ġden otes
Ġneutral izing
Ġs igmoid
ĠM agnetic
Ġdis h
Ġsc in
Ġbl unt
Ġ15 00
Ġir inotecan
Ġfree ze
Ġprost hetic
Ġemploy ing
Ġacqu iring
Ġvitre ous
) ?
Ġh ope
Ġl avage
ure th
ĠH or
ĠPh armaceuticals
Ġfail ures
ocyt oma
no ea
Ġnor th
Ġexplan ations
Ġeryth rocytes
V O
Ġo le
ĠC aps
Ġde generative
Ġun accept
opl ast
ĠOver dose
Ġdig it
Ġfibro tic
ĠEnd o
Ġparas itic
ĠAp o
ĠGP s
Ġcarbo hydrates
Ġextrapol ation
ĠD iv
ĠJ oint
%) ;
Ġorgan elles
hel l
pos ing
Ġdim ethyl
Ġagg ression
ah an
Ġneph rectomy
ypt ophan
olip id
Ġsensiti zation
opod ia
Ġsynerg istic
" ).
v ens
z olid
Ġc ad
ĠA ED
ver n
se x
ĠO H
Ġsc anner
Ġinform ative
Ġsmall est
Ġel abor
spec trum
ĠMin or
Ġmer cury
Ġanc est
ĠObs erv
Ġfertil ization
Ġtrach omatis
op edic
Ġcomp atibility
Ġdet ox
par ticularly
ĠAc tiv
Ġpo ols
ĠVal ue
Ġfore arm
Ġeosin ophilic
Ġcovers lip
oxygen ase
Ġreper fusion
H DL
ĠB art
ĠL TBI
ari atric
Ġen zalutamide
rombo tic
Ġincid ences
acryl amide
w ave
Ġf urn
Ġl enalidomide
ĠC ognitive
Ġcor ro
15 8
Ġenc aps
ĠPre operative
Ġintra peritoneal
ĠAK T
Ġgins en
b ad
ĠC ore
od om
Ġch arges
ĠO v
Ġcol ors
15 3
vers us
ĠReg ulation
illip ore
a a
g s
Ġc enti
ĠM ake
ĠD er
ĠE CP
ĠG auss
ĠL am
ĠL ate
ast atic
str y
Ġexpl oring
Ġpa rox
Ġdispl aced
Ġhousehold s
ĠContinu ous
ĠDefin ition
Ġt innitus
Ġs ial
es ophag
Ġle ishmaniasis
Ġen j
Ġchild birth
Ġtechn ically
ĠCA BG
Ch ild
ĠPT H
Ġemo tions
Ġalb icans
with out
Ġcompet ence
exc luding
A pp
I B
v ille
y ellow
ĠT od
Ġhyp oxic
Ġpur s
ĠDo es
IG N
Ġefficac ious
i enced
ĠA GA
ĠP rospective
tic ides
Ġres idence
ĠE GFP
ĠG FR
14 1
hy per
Ġshort ness
Ġintegr ate
Ġ48 8
Ġpolys accharide
Ġbrach ytherapy
Ġchemorad iotherapy
Ġcurv ature
Ġp ictures
ar ity
Ġn os
ĠW ashing
Ġdes m
Ġfl our
AS S
trans plant
Ġrepl acing
Ġlif es
buff ered
Ġ ips
Ġo titis
Ġde af
pl iance
ĠN iger
Ġint elligence
ep ilep
Ġspec ulate
Ġanti se
01 4
Ġ19 76
Ġvacc inations
Ġmechan ics
Ġmid azolam
Ġpoly ethylene
Ġagg rav
ĠSign aling
ĠREC OMM
Ġnom enclature
Ġpem phig
Ġdiaphrag m
7 00
Ġa f
Ġd ates
ar ms
Ġh uge
ur t
ĠP el
iv ac
ep tic
Ġno tification
Ġcor pus
Ġnon linear
AT CA
ĠCol lec
Ġbot ulinum
reon ine
ĠRECOMM END
Ġa ripiprazole
ĠEx ercise
Ġsymmet ric
Ġamp icillin
Ġgangl ion
g ian
w elling
ent h
ph asic
ĠV F
plic ity
Ġfem ur
Ġinterpre ting
Ġcheck list
Ġlys ate
Ġfung us
ĠBen ef
ĠRho A
Ġborder line
ĠEv ents
Ġelectrocardi ogram
Ġduoden um
Ġs aving
is ite
qu ir
Ġch ief
iz ational
Ġeff lux
ĠAdmin ister
Ġin gested
ĠC RI
ĠR AD
ĠIn dic
ĠUn til
Ġ13 1
ĠImmun ization
Ġcollabor ative
Ġhistopath ology
Ġassign ment
Ġobser ver
Ġ(âĢ ľ
m ac
ad ol
Ġsh ield
Ġpers isted
Ġbl ots
requ ently
TR A
Ġcross ed
ĠExper t
ĠSte ering
ĠDem ographic
ĠRational e
ĠT TA
ĠIn ser
Ġ3 20
ok es
ĠAn at
ling ual
ĠAC h
Ġhundred s
ĠORAL LY
Ġtamp on
2 10
Ġl actic
Ġam lodipine
Ġsyn apse
13 6
Ġol anzapine
Ġneph rot
Ġoccasion al
Ġquad rant
Ġhypothal amus
}$ $
Ġs sDNA
ĠM PS
og ue
ĠN erv
Ġdi phtheria
Ġout do
ĠPro per
Ġradi ography
hel d
con dition
Ġemploy er
Ġmes enteric
Ġven a
Ġemph yse
char acter
rim ental
y zed
Ġm ot
Ġto cil
up per
Ġacc red
Ġpath ologies
ĠPre v
Ġevery day
Ġneuro endocrine
ĠNe ph
Ġweak ly
Ġderm is
tra umatic
Ġdro pped
ĠClostr idium
Ġt re
Ġc row
ĠS earch
th yroidism
Ġat tained
tr ig
ĠN AT
Ġinf rared
Ġem issions
Ġfe es
pro fit
Ġgeneral is
Ġeven ing
ophyl line
Ġunres ectable
Ġsegreg ation
Ġtocil izumab
m orbid
Ġdis pro
ĠTh irty
Ġno tif
Ġfol ic
Ġ12 1
ob s
Ġdepend ency
Ġread ers
Ġthromb in
Ġauthor ized
com ing
Ġthrombo tic
Ġdang er
Ġperox is
A X
Ġc iliary
ĠD am
ch i
Ġph aryngitis
Ġtw in
yt hem
ĠPh D
lor o
IP A
Ġalter ing
Ġortholog s
he red
Ġc u
ro le
Ġl ived
ĠW I
Ġwe aning
Ġmod ifying
Ġ20 21
Ġinj ect
Ġtranscript ome
Ġdest abil
Ġpropag ation
Ġved otin
F B
en ol
Ġd ies
Ġrel ates
ob el
Ġel bow
ĠÂµ L
Ġdiss olution
Ġminim izing
Ġsuccin ate
Ġamel ior
Ġhelic ase
P EG
Ġpro kary
Ġun in
ĠV AS
Ġam iodarone
ĠGroup s
Ġclos est
ĠGl ut
Ġinfarc t
Ġanth rac
Ġcond ensation
Ġshorten ed
ĠWilli am
Ġc etuximab
ĠP or
up uncture
ĠD ic
est rel
Ġcor n
Ġref ined
ucle ar
Ġchem okine
ĠRes ear
Ġplan es
Ġorient ed
Ġprogen itors
Ġnick el
on ectin
ĠM K
Ġsh ut
ĠG lyc
ĠO ct
ĠW ild
ĠSc hed
ĠExperim ents
ĠPf izer
ĠAvail able
Ġmicrogl ia
b in
Ġdet rimental
Ġur ic
Ġocc ipital
Ġq RT
AN T
Ġchlor ine
entan il
ec ia
ens or
ath rin
Ġassoci ates
Ġem erge
Ġrap amycin
Ġsw ab
Ġsuccess ive
Ġred is
Ġquestion ed
Ġuns uitable
Ġmanif ested
) âĢĵ
T s
Ġex ud
ag rel
par athyroidism
ral gia
Ġfib re
ĠZ DV
Ġcross ing
Ġow ners
Ġchlor oform
Ġlob es
itud es
Ġtrigg ering
ĠPo or
ĠAMP K
ĠAssoci ate
% âĢĵ
ve x
Ġpro thrombin
01 1
Ġbl urred
Ġprospec tively
Ġaddress es
athe red
ĠSex ual
Ġduc ts
Ġretros pectively
Ġtot ally
M G
on ol
ur ning
ĠI X
eth anol
Ġben ch
GT CA
Ġhand le
Ġtrache a
Ġbrief ly
ĠLim itations
Ġconv ulsions
Ġdab igatran
appro ved
icyl ic
Ġtransduc er
a ortic
Ġ( '
ul ous
ĠA SD
Ġst ro
tic asone
ĠH eter
ĠR ock
ĠL SD
Ġfac ing
Ġrepresent ations
ĠComb ination
Ġresemb le
Ġventil ator
ĠSoft ware
Ġcrim inal
O CT
Ġfor amen
Ġat ri
ĠB iology
ax ine
Ġmechan istic
con trast
uccess ful
Ġpyr uvate
Ġadvis ory
omorph ic
Ġexhaus t
Ġamput ation
C HO
Ġb are
ĠT c
ĠE BV
Ġch apter
ĠB E
Ġpl ur
Ġall ocated
Ġbi ogenesis
Ġengine ered
Ġextinc tion
G u
h ard
in ent
at osus
ar achnoid
ess el
ub er
end ers
Ġam ygd
gen ome
Ġev acu
ian a
ĠCA M
Ġconsult ant
Ġdri vers
ĠLV EF
Ġwind ows
Ġcholec ystitis
Ġepit ope
? ,
a o
Ġfor k
iti d
hes us
Ġchild bearing
Ġvis ited
Ġspe aking
Ġantimicrobial s
Ġaber rations
+ /âĪĴ
Ġd ic
Ġb eds
un n
Ġco herence
yt ocin
Ġra y
ov astatin
ĠAd en
ĠEx trac
orb ed
Ġupd ates
Ġdisrup t
Ġformal in
ĠTop ical
V al
Ġal beit
Ġen force
Ġtw enty
Ġconcentr ate
erc apt
ĠCon centr
28 0
Ġcertain ly
ĠST Ds
trans fer
Ġmaintain s
Ġuter o
Ġrheum atic
Ġmere ly
l av
Ġ rom
Ġf ell
Ġg ather
ĠC N
Ġco ffee
form aldehyde
Ġcirc ulatory
Ġflow er
vis ible
Ġcal or
ĠRed uction
raf enib
ĠMT X
ĠImpro vement
Ġb a
Ġv oid
Ġhe lices
Ġproduc tivity
Ġantic onvuls
Ġtermin ology
Ġsed ative
Ġpenet rating
atre mia
V D
a verage
c ine
ic itis
Ġg ets
ĠW BC
Ġrece ipt
Ġend osomes
Ġdel ta
arrow s
ĠPer formance
Ġprote ases
Ġsearch ing
m ain
m RNA
t led
ot rophic
ip al
ari able
ĠAl pha
Ġrese mbl
rome ga
me ga
Ġachie vement
Ġback ward
Ġdown loaded
Ġrating s
Ġmicron ucle
ĠRandom ized
Ġb ank
ys ts
Ġcl otting
Ġinter ior
ĠV II
ox ication
ĠAn xiety
Ġ12 7
Ġimmun omod
49 7
Ġbr u
ĠAB I
Ġdas hed
inted anib
A ll
T i
Ġp mol
Ġg ently
Ġnot hing
ep razole
Ġsp ike
othe tical
Ġcat echol
certain ty
Ġwors en
do i
ĠIran ian
Ġprecipit ated
Ġlamin a
ĠMusc le
Ġagric ultural
h is
n ormally
Ġ rain
al cohol
ĠF OL
ĠIn vitrogen
ĠB est
ĠK u
Ġ19 78
Ġ9 00
cur ate
CT s
Ġmodel ed
Ġsleep ing
opro x
Ġfer ritin
ĠCam bridge
Ġtraine es
m M
Ġd airy
ĠT ATA
os per
Ġth iaz
pl oid
ose xual
ast inal
Ġdri ver
Ġadvis able
ĠDie go
Ġb atch
um etric
Ġex chang
ĠO B
ĠW a
Ġph ant
Ġro se
Ġ19 77
pro ced
ĠMul tiv
Ġpropos al
oprox il
Ġs port
Ġp T
Ġd rought
ac les
ĠF ever
ĠTh yroid
ten tional
bl asts
Ġcontinu um
utri ent
Ġaw ake
m ur
or ted
ro plasty
os m
ĠS olid
Ġper ce
Ġben e
of requency
Ġcap ital
Ġbund les
L F
X T
ul an
ĠM u
Ġco al
ĠV ideo
01 6
ĠSt at
Ġblood stream
cop y
TT G
17 5
Ġresid ential
ĠAC GT
AN OVA
Ġcoll apsed
Ġrele asing
Ġgovern ance
Ġlev odopa
oc rit
Ġgro in
Ġgro ove
lo fen
Ġdem ographics
Ġaff ili
ĠDa ily
in ostat
ĠM orph
Ġde gen
igh ter
15 2
Ġhead s
55 5
Ġ$ $\
ĠMut agen
Ġacetyl choline
c her
Ġt on
Ġv ice
am ed
ĠM iller
Ġall erg
01 3
az id
Ġchem okines
Ġmen opause
Ġcarb amazepine
ĠDe ep
Ġ* ,
otrop in
Ġlangu ages
ĠDox ycycline
or vastatin
ic c
ĠT N
ĠT b
ĠT AA
ĠH aving
Ġdi hydro
Ġy ielding
Ġme iosis
Ġtra bec
Ġmand ible
Ġcommission ed
Ġswim ming
B e
he im
Ġl arynx
Ġinf used
ist ence
Ġcl onal
Ġco administered
Ġspec trophot
19 99
Ġaden ine
aqu iline
eff icacy
Ġhaem oglobin
Ġepilep tic
Ġannot ations
Ġsupernat ants
Ġprecipit ate
Ġfluoroquinol ones
ĠRich ard
ĠEchocardi ography
c el
tr im
te em
Ġcan agliflozin
01 2
Ġpep tic
Ġsimple x
CO VID
Ġduplic ate
Ġcram ps
g ic
ĠC e
ĠP LC
qu ad
th ick
Ġad versely
Ġdec iding
ĠEn h
ĠZ inc
ĠCa ution
Ġent rance
hal ation
mm ol
iazep am
Ġelic it
oinform atics
ĠSurve illance
d y
Ġh it
Ġsc anned
Ġ19 75
Ġguid ing
ull a
Ġinflu enzae
ĠES RD
Ġaggreg ate
ript yline
Ġ {\
Ġb uccal
im idine
ost on
SP R
Ġbo ost
ĠPC P
Ġjus tified
target ed
Ġabol ished
f irst
Ġs no
ĠT ol
Ġg olimumab
ĠS MA
Ġup ward
hem oglobin
ĠRe ad
Ġamin oglyc
ĠTrans cription
cal cemia
Ġtel omerase
diagn osis
Ġbarb itur
j u
w hen
} \
he ast
as ant
res id
ĠH ill
ĠE ye
ĠK er
ĠEn ergy
Ġmat ches
Ġparamet ric
ĠSh own
ĠPl us
Ġrespond s
Ġcav a
ĠAp plied
Ġket o
Ġsymb ols
ĠZe iss
ĠGAP DH
ĠPIC O
Ġtampon ade
Ġw anted
Ġd ress
Ġf ludarabine
Ġex isted
ĠG ib
Ġradi ofrequency
Ġte en
ĠDec l
Ġshorten ing
ĠPac ific
Ġdisl ocation
c am
c DNA
Ġth reatening
ĠC s
ĠI HC
ĠM ont
ĠD PP
ch arge
ark s
rop y
RT I
com plex
Ġrank ed
ĠBrazil ian
Ġstre ptomycin
ĠAcknowledge ments
3 20
e tics
p it
Ġp overty
un published
Ġg athered
ure tic
ĠB ronch
01 8
az em
Ġred ness
Ġconn ecting
Ġana phase
ocomp atibility
lig o
Ġsor ted
gar is
ĠBayes ian
P ar
f ection
Ġa ux
Ġn emat
Ġsm ears
rop o
oph istic
ĠPro v
17 2
Ġadd s
37 5
Ġi i
ĠâĨ ĵ
Ġintr ons
ĠSA M
ĠProgram me
ĠMax imum
h ost
i ens
re ase
os artan
Ġas sembl
Ġv oc
ĠH ong
ĠF lor
ist os
Ġcol lis
hen tic
Ġsex es
Ġlip ase
ĠTrans mission
ĠEnd oscopic
Ġmask s
ĠLi u
Ġanomal y
phosphory lation
T n
ã Ģ
on atal
ĠT V
od s
form at
Ġhum id
Ġhyper kal
23 3
ĠCons ortium
Ġrepro duced
Ġinstit uted
Ġthor ac
Ġcoup le
opol ys
ĠWAR N
f all
l oss
ol is
ĠC AG
Ġrel apsing
Ġser ological
Ġaffec tive
Ġintra vitreal
ĠSe lection
Ġrestric tive
Ġgran ular
ĠCP R
Ġmorb id
Ġhypertroph ic
âĢ¦ âĢ¦
Ġabstr acts
ĠSG LT
pres cription
cox on
b ed
s ix
y ph
it em
ot oxin
op ecia
ĠO h
ĠL IN
tis one
fer roni
ER F
Ġevery one
Ġrefer rals
Ġfree zing
Ġpig mentation
isting u
Ġeryth rocyte
Ġgerm line
Ġasymmet ry
press ure
Ġdiscipl ines
ben ef
Ġoverw hel
C YP
ĠB rad
Ġpar ag
so ft
inc ial
ĠRet rie
Ġdisplay ing
Ġdisapp eared
Ġmicrog rams
iram ate
Ġcorro bor
g ut
l ane
ar ith
os itive
ĠD im
ĠH SCs
iti ves
Ġday time
ges terone
Ġana phylactic
atum umab
Ġdimer ization
Ġarg ument
Ġalk yl
ĠWashing ton
a ur
n ull
p ine
it ness
ic ide
ĠR est
ĠR ather
per acillin
av is
ĠRec omb
pre tation
angu age
head ed
Ġdepolar ization
ĠAlber ta
Ġp N
or ial
ol ia
Ġse aled
oth y
Ġpath ophys
ER D
Ġpur p
Ġwor n
Ġpair ing
Ġhemat ological
ercul ous
Ġupd ating
Ġbud get
Ġtranspl ants
ophyl l
Ġkeratin ocytes
on ents
or afenib
ĠS ha
Ġmon onuclear
Ġsp anning
Ġobserv ing
tis sue
Ġhospital izations
Ġhemat oxylin
Ġpack ed
ĠBac illus
an osine
ĠS pl
01 7
Ġel lip
Ġradi ology
Ġ17 0
Ġcondition ed
Ġorigin ate
acet ate
Ġcann ula
Ġf ission
ro oms
ĠT el
um ption
ĠR I
ĠR BC
Ġun infected
ap ters
Ġco oper
Ġar t
Ġar res
ef ovir
16 1
lamm ation
ĠAss ociated
Ġcarcin ogenesis
Ġplay ing
Ġsyring es
Ġsubm ucosal
Ġsemic onduc
l ass
v aginal
ĳ Ä
ĠIn tr
ch ronic
ip ramine
ox o
plic ating
cent er
Ġbrain stem
Ġstar vation
Ġneut rin
Ġpair wise
au er
Ġhypog lycemic
Ġdraw ing
Ġglycop yrrolate
Ġthal idomide
ĠRam an
S ub
Ġc ock
ing ham
id o
ĠC onstr
ĠS et
ell i
ĠR EM
Ġcl ub
Ġinter active
ung er
Ġcomb us
18 2
Ġlymph omas
orb idity
ns ic
ili pp
med icine
oag ulation
A kt
O r
Q iagen
z ole
on ing
ul ti
Ġ2 25
ĠF B
ri ol
Ġman eu
cop l
Ġprob ed
Ġtem plates
opl asia
Ġnit rite
Ġenter al
Ġinduc ible
Ġimped ance
Ġmetric s
Ġanne aling
j a
ti azem
Ġe ars
il ding
Ġcon gestion
ĠP ass
and ibular
ĠCh ris
ĠEx cess
Ġu ve
Ġprec ipitation
Ġanalog s
ĠAut o
ĠMit ochond
ĠPercent age
Ġunaccept able
Ġenj oy
p ic
Ġc rest
Ġrec ur
ĠV as
ĠRe ports
Ġregard s
ĠPD E
raz inamide
Ġintern et
Ġmob il
ĠBr dU
Ġlact ose
Ġplatform s
ĠAnal y
heres is
ĠUTR s
ĠResear chers
f ish
ĠA MD
Ġv ide
Ġres erve
ĠO M
Ġint rap
ĠAn ders
ĠAs perg
itte es
Ġsk illed
17 6
Ġhel ical
Ġsinus es
Ġmar ine
Ġelect romagnetic
Ġflank ing
prim ary
ol ymer
ĠI NT
ĠM uc
ĠR CC
enti st
uch i
ace pt
Ġsm ell
rop ine
Ġlo ose
ĠSe oul
Ġpublic ly
MS E
ĠSec tions
Ġaccept or
Ġclar ity
Ġamb ig
Ġbeg un
Ġspectrom eter
Ġunp aired
ĠWind ows
Ġin e
us ts
ĠI ron
ĠIn jury
ĠB AC
ys iological
ip enem
Ġpe ers
Ġdisc s
âĢĿ )
Ġoccup ied
Ġvul garis
Ġpolymorph ic
Ġnever theless
Ġdiscl ose
ĠChrom osome
Ġbub ble
Ġgrate ful
Ġips ilateral
G roup
T g
ot om
ĠA k
ĠO C
Ġmon oxide
Ġgener a
rit ory
ĠHealth y
Ġcarbon yl
Ġdecl ines
Ġirrit ability
Ġgraph s
Ġlev ofloxacin
K A
e ither
ure ment
Ġr is
Ġall ergen
ĠV T
ĠSt re
Ġhel ium
Ġcollec tions
Ġfund s
Ġreal istic
Ġformal dehyde
He alth
Ġreciproc al
Ġafl ibercept
Ġrhabd omy
Y T
Ġre plicated
Ġconc rete
Ġrem n
Ġ12 2
Ġtr acer
cop rotein
Ġep ist
con n
raf ts
Ġconjug ation
Ð²Ò ĸ
Ġemphyse ma
- )
Ġl ying
her ing
ial s
ĠV ancomycin
Ġsyn the
Ġ12 6
Ġpost ural
Ġlip s
ION S
pir in
Ġneut ron
rehens ive
Ġdry ing
Ġveget able
Ġdrople t
Ġendors ed
Ġin ad
an ch
Ġh am
Ġl enti
ĠP ax
ud ent
ĠF ield
Ġtrans duced
out s
Ġimp ression
ĠK r
Ġsp acing
Ġpot ato
Ġappear ing
Ġcat ch
Ġelectro por
Ġens ures
ĠIs land
Ġhomolog s
Ġprescrib e
Ġmanag er
ĠEst ab
Ġosm otic
Ġtroc ar
f rame
Ġst ools
ĠE AG
Ġund ifferentiated
ĠJ ack
Ġfl aps
16 8
term edi
tex posure
Ġglob ulin
vit amin
methyl ated
ĠOb esity
exper ienced
Ġbact eremia
L L
R ed
u ing
ĠA ur
ĠP W
ĠP AN
ĠD IS
ĠL yn
ĠL iter
ew orthy
Ġgl ial
Ġhyp op
18 3
ĠHe at
ĠCO S
orb ent
Ġtit rated
Ġinstr uct
Ġaccel erate
Ġuns uccessful
Ġnarrow ing
Ġjuris dictions
c ycle
d f
Ġp s
ĠA CAG
ĠD TT
ĠW al
Ġass ault
dep th
Ġhepat otoxicity
ĠHep G
obenz ene
f ect
Ġin jecting
ĠC AAG
pl an
Ġanti tumor
raph s
Ġhem e
Ġana esthetic
Ġseg mental
afen amide
then ing
ĠStruct ural
rabb it
V EGF
c ross
Ġc rown
im etric
ĠS CA
Ġ3 000
ign ment
Ġsup erc
âĢĻ -
Ġhyper parathyroidism
ĠQ ue
Ġelectro static
ĠHydro chloride
Ġbud ding
Ġaber ration
ĠAnal yses
Ġincons ist
Ġhypokal emia
m ium
Ġc ured
oc used
ĠF ried
Ġch ills
ĠG V
ĠQ oL
ĠMin i
Ġround s
Ġsick ness
onit rile
ĠNerv ous
Ġo intment
om eth
ĠC ervical
ĠH ospitals
ren ces
Ġme iotic
ult ation
rain s
ĠRes id
Ġcer tif
Ġter r
Ġcat tle
Ġtheore tically
ĠAct in
Ġscaff olds
Ġan no
id is
ĠG ran
16 5
Ġrefr ig
ĠPers on
col l
Ġgon orrhea
Ġansw ered
oprost ol
c le
Ġm ur
Ġinc hes
ym et
AT GG
Ġ12 4
of osbuvir
tt ps
Ġplant ar
nex in
Ġpossess es
ĠACKNOWLED GM
respond ers
Ġtumorigen esis
om ed
ĠA IS
ĠR oman
ik a
Ġsens ing
ĠÏ ī
Ġland sc
Ġdisadvant age
Ġcontra dic
ĠBle eding
paramet ric
P ati
U U
Ã ¨
Ġo pt
Ġd uty
Ġf iss
ith iasis
Ġr il
ail and
Ġexc ited
na Ã¯ve
Ġsinus itis
ophthal m
0 24
g lob
g ender
r ys
Ġst ressed
Ġal ters
ĠL iving
als artan
ne ed
Ġcor por
Ġpo uch
ĠPC a
Ġinterf aces
Ġintermedi ates
Ġpriv acy
Ġerythem atosus
Ġbenzodiazep ine
Ġunderes timated
ĠFin land
ĠACKNOWLED GEM
Ġvisc osity
R C
w orld
ad o
Ġpre existing
ĠW all
Ġwe ap
ĠAn th
Ġtr is
Ġdesign ing
Ġchrom ium
ĠAT A
ĠCol umb
Ġmel atonin
rest hes
Ġmultic entre
ĠNAD H
ĠFR ET
f q
Ġc adherin
Ġd ict
et inib
am o
am but
ory lation
ĠU TI
ĠV iral
Ġbl ank
Ġmal aise
ĠLA IV
ĠPress ure
Ġmt DNA
Â¬ âĢł
Ġspirit ual
Ġ2 60
oc omial
ĠB ab
ile t
Ġins pected
Ġpredis position
ĠGTP ase
Ġrins ed
F F
R V
f u
x ious
op res
ĠD B
ĠB rit
ĠB PD
ĠL G
ob ac
ĠDi etary
amp icin
Ġbreak through
vacc inated
r atic
im etry
ĠP AC
Ġloc k
Ġphys iotherapy
Ġsol ved
ĠY ellow
Ġcontrac tile
ĠPers onal
Ġec os
sup plementary
Ġcompens atory
Ġtax a
Ġamygd ala
+ +
m ill
p x
y ly
Â ²
Ġo esophag
Ġf its
Ġ2 80
ĠH ouse
Ġcor ner
Ġdef ibr
Ġidentif iable
iqu id
Ġ14 4
ĠPar amet
ĠAP P
Ġconver ting
Ġgalax y
ropr actic
w t
Ġa pt
Ġs ophistic
Ġm old
Ġn avig
Ġfor get
Ġad herent
15 1
Ġiniti atives
Ġprom ise
Ġcontr actions
Ġhand led
cell ulose
Ġsupp ressing
Ġsem antic
Ġhypog lycaemia
ĠResp ons
athe cal
lym pus
Ġchond rocytes
Ġrearrange ment
Ġatri oventricular
A CC
Ġf oster
Ġe favirenz
ul ic
ĠR ot
ĠL it
hes ter
hen icol
Ġcharacter s
Ġprom pted
Ġâ ©
Ġcent ered
osa ic
ĠCF TR
arv ard
ĠACT H
ĠOl der
Ġgent amicin
Ġaspart ate
reth roid
p yr
Ġt ank
ot actic
ĠP SC
ir radi
vid in
Ġsub clinical
ĠV AT
ogen y
Ġmicro RNA
Ġbo ards
Ġventric les
acetam ol
sus ceptible
ivac aine
d in
Ġc ities
el ong
ĠA Z
pl ified
Ġco existing
Ġam niotic
Ġcol lo
Ġobs c
Ġsmall pox
16 3
Ġphosph atidyl
amp henicol
ĠAT G
Ġextrac orporeal
ĠRad i
Ġdispos able
Ġgef itinib
Ġplur ipot
Ġc ath
om ically
Ġl eng
ĠA H
Ġcan ine
ĠÎ ·
ex cept
Ġclass ify
ĠCO L
hel ix
Ġpur ple
Ġpi oglitazone
ĠChar les
Ġcigare ttes
Ġances tral
3 50
Ġt ill
ic ist
Ġch ances
ost al
Ġob lit
Ġlocal ize
Ġsupp osed
Ġver tigo
tric ted
ĠIC H
Ġbro th
Ġden oted
Ġrefr iger
Ġhypog onad
ĠOb st
Ġmast ectomy
E BP
Q I
k Da
Â £
ul o
ĠF luorescence
Ġdis infection
ĠE GB
ill aries
Ġme ets
Ġpr inted
ĠAC IP
Ġrele ases
ĠCardi ology
ĠChem otherapy
Ġperman ently
Joh nson
R FP
c us
ĠB W
ĠTh oracic
Ġins ignificant
Ġany thing
Ġhyp othermia
Ġhydro chlorothiazide
Ġphot oc
Ġquantit atively
Ġren ew
ĠOx ygen
Ġdiscrep ancies
ĠTub erculosis
C as
b acter
ar ticular
ĠT ay
ĠB ank
ĠW S
ĠL and
alth ough
ĠV SD
ĠAn tim
til is
Ġchem otherapeutic
ĠCO NS
Ġscre ens
arb oxyl
ĠST I
Ġcal ibrated
Ġsusp icious
lycer in
Ġtrache ostomy
Ġadip ocyte
Ġdyst onia
num ber
g ly
re a
ot roph
Ġst ems
Ġr DNA
ĠR al
Ġcomp ly
ast hen
Ġins et
rop ion
Ġev oked
ĠQ D
Ġview ing
ophag y
Ġhair pin
Ġtel es
Ġasc orb
romy ces
Ġsel en
Ġa P
op ur
rom etry
ran g
ĠO CD
ink ing
ĠâĪĴ .
Ġmeta phase
rof en
ĠSO CS
ĠDiv ision
a ec
s al
v ia
Ġ 00
ĠT X
th rombotic
ĠF AS
ref er
Ġk ary
ĠÂ ®
Ġrem ed
ĠST R
Ġassum es
OD E
Ġinst alled
Ġcul tivated
Ġultim ate
ĠEv olution
Ġmoment um
Ġstrengthen ing
Ġcass ette
s k
Ġm C
Ġg ift
uc el
pl us
ĠN L
ĠÎ ¸
19 2
ardi zed
Ġreve aling
hyd rated
ĠDec ision
with in
Ġbul b
ĠTGF Î²
Ġonc ogenic
Ġuniform ly
phot on
Ġthal amus
Ġelectroly tes
Ġimmunost aining
Ġfrail ty
) ].
D el
Ġex ceptions
Ġne bul
Ġmon omers
15 9
Ġdiscuss ing
ps in
Ġnan o
vacc ination
V i
j ac
o es
r ase
w orth
ar ic
ĠT LC
ĠC osts
ĠC ercospora
Ġk ern
ear man
Ġtrans dermal
Ġpos itron
20 5
Ġpneum onitis
Ġconsequ ent
ĠIN H
Ġresc ued
ĠTe am
Ġunivers ities
ĠDiscl osure
Ġdenti st
ĠBon ferroni
Ġcod ons
Ġincon clusive
i ella
s oluble
Ġd b
Ġd ream
ĠT ax
ĠH U
Ġint oxication
rit es
24 0
Ġtherap ists
ĠElec tron
ĠCar l
Ġfibrin ogen
U p
i ety
m ade
Ġn ig
Ġco operative
ĠK l
cl im
Ġmut ual
Ġread ings
ĠApp ly
rog lobulin
immun oprec
Ġabscess es
pe ak
Ġautoantib odies
K B
ur ies
Ġg H
Ġad m
ĠB ern
Ġbl ister
Ġdistinguish ing
Ġcrop s
ĠNET s
Ġga uge
onol actone
U E
f acial
Ġp M
at uring
ul ing
Ġcont emporary
Ġj ug
Ġmass age
Ġmig rate
ĠPO OL
Ġwebs ites
ĠAntib odies
cha romyces
Ġgast rectomy
p ivir
ic ations
ĠM AC
duc ible
ĠL I
Ġvari eties
co al
Ġphys i
14 7
Ġorgan izational
Ġmicro f
Ġhospital isation
Ġpharmac otherapy
Ġpara formaldehyde
Ig G
ocys ts
Ġwhee zing
c old
Ġin version
un avir
ĠC ASE
Ġex curs
Ġass urance
par ag
rop in
ĠMe V
Ġmac roscopic
ĠMean while
Ġperme abil
Ġreflex es
Ġneuropsych ological
process ing
Ġirrig ation
epilep tic
i omy
n ine
Ġc otton
Ġdis oproxil
Ġwh ilst
ĠN ations
ĠL U
Ġph armacy
Ġtherap ist
Ġair flow
In s
Ġleuk openia
ipp le
Ġbronch i
Ġdop aminergic
Ġfo am
random ized
Ġrearrange ments
ĠRever se
Ġserocon version
R L
m ale
Ġo xim
Ġs ectors
ĠD OT
ĠE N
iz able
Ġar s
Ġsecre te
Ġste atosis
Ġminim ise
Ġput ting
Ġdiscrim inate
ambut ol
r uit
in ositol
it aprevir
Ġm agne
ĠS ite
uc tive
Ġv io
Ġal afenamide
ĠW u
our ing
CT CA
Ġimmun ocomp
Ġmul tis
ĠCon ditions
Ġinfec tive
Ġartic ular
ĠAD C
Ġsummar ize
troph ic
cat heter
Ġleak s
ĠRP MI
ĠDig ital
Ġaccommod ate
orient ed
ĠCri tical
Ġanthrac is
Ġine vit
l one
Ġs oc
Ġs tern
at ectomy
as er
ĠT D
Ġbe ar
ĠM IT
ĠD ual
ĠB H
ĠG AA
ard en
Ġbut t
AR Y
hol der
Ġbo iling
Ġask ing
week ly
ĠControl led
pan ze
Ġpoll ut
Ġflav on
Ġsarc oidosis
Ġprotr usion
K G
ĠA part
ĠC CL
ĠR ub
Ġco valent
ild en
Ġsp asm
ĠAl b
unt arily
Ġ13 4
ĠEn t
Ġintegr ating
Ġserious ly
Ġmedi ator
Ġmes ylate
IL D
Ġminim ized
Ġos eltamivir
ht ml
Q oL
S G
t el
u i
w orm
Ġm ock
Ġb os
ar tis
ĠC iprofloxacin
st udy
Ġsub sp
Ġhyp othetical
Ġ13 2
ish ment
ĠDi et
Ġplate au
ĠCTT G
h at
Ġm ail
Ġn intedanib
ĠP le
Ġac utely
ĠH i
te br
ch olester
ĠO phthal
ym e
Ġam ph
Ġmo iety
Ġhist ories
Ġsurv iving
Ġda ughter
Ġrest or
Ġhere in
Ġrestric t
Ġtip s
ĠOx ford
Ġureth ra
ĠIll umina
Ob jective
pivir ine
E E
r actory
ĠF us
Ġcl athrin
Ġtrans it
Ġtrans pos
ne ut
Ġprog ressing
Ġcaus ality
Ġsugges tion
astic ity
ĠComp eting
Ġelim inating
Ġwar ts
ĠPR O
ĠFran cis
ĠKn owledge
Ġsilic one
Ġfores t
Ġepit opes
fac itinib
H odgkin
re tt
Ġb ariatric
os er
os an
ĠP b
Ġev olve
spec ies
AB L
Ġmyocardi tis
Ġventi lated
Ġfilter ing
ĠPsych iatric
Ġdispers ed
Ġsimpl ified
Ġexcit atory
Ġpostp randial
R ef
R ES
d ans
ĠC EA
ĠF H
ĠG ross
ĠW M
ens ated
Ġcons ume
ĠU N
az op
22 7
ĠCon cer
Ġflow s
ĠPar tial
ĠAL P
Ġoccup ation
Ġattempt ing
ĠDirect or
Ġshed ding
Ġnumb ness
termedi ate
Ġs ized
Ġd orm
Ġh us
Ġpro line
Ġdis ordered
ĠL O
Ġsub arachnoid
ĠV O
Ġdef er
ok inase
yc odone
Ġspecific ation
16 2
ĠSp inal
Ġdetect ors
prising ly
Ġhierarch ical
Ġeosinophil s
f ts
l af
p ain
Ġ ith
Ġ ille
on n
ti st
an tile
el ic
ĠH I
ĠTh ailand
Ġ13 7
Ġx anth
Ġconsum er
Ġlog ical
olec ules
ĠHis panic
ĠMutagen esis
z otinib
in el
Ġm Eq
Ġas terisk
tic a
ĠF all
ĠF ellows
ĠG SH
ens able
14 9
cep s
Ġoste oblasts
UN D
ĠLip id
ozo a
Ġvasc ulitis
Ġnation wide
Ġemit ted
ĠMEF s
Ġsib lings
Y A
g ium
p ig
ur c
., [
Ġproced ural
Ġâī Ī
ĠReg ion
ĠDet ailed
Ġdecomp ression
ĠRO I
Ġglucocortic oid
Ġheterod imer
ĠFre ud
otub es
Ġlifes pan
Ġstro kes
Ġc otrans
ed u
Ġd osed
Ġis land
ter ing
od end
ĠP red
ĠIn struct
Ġun available
ĠJ A
Ġoccur rences
Ġox al
Ġfib ronectin
Ġcap illaries
Ġpharmac ology
OR D
ĠPl ate
Ġmedi astinal
Ġpal mit
ĠEm ploy
Ġpy el
ĠWilli ams
it ated
ec d
ĠS AP
ak o
Ġbi ases
Ġimmun ized
Ġdisc our
14 4
Ġvol umetric
utri tional
ser ver
Ġgu ardi
ĠFl ag
âī ¤
ĠNC BI
Ġglycos ylation
Ġanesthe tics
ĠREP ORT
Ġallerg ens
in ut
ĠT RE
st ance
ay a
ĠF ar
ref erence
ep am
Ġun diagnosed
ĠU LN
ĠEx tra
Ġpow ered
ĠSp e
Ġprolif erating
Ġorth opedic
ĠAut hors
Ġna Ã¯ve
ĠTI MP
Ġald osterone
D B
Ġt roph
Ġb oy
Ġ( +)
ĠM AL
ĠM aster
ĠF E
edi atr
eff icient
ĠWil son
ĠATT A
tigm ine
Ġworksh op
3 60
T CA
X X
Ġw orms
an in
it asvir
Ġd s
am ustine
Ġmy algia
ĠRec ogn
56 2
Ġglyc olysis
Ġion ization
odyn amically
Ġfin ite
ĠES R
Ġexer ts
Ġextern ally
u tility
Ġre assess
Ġh op
Ġl ovastatin
oc o
ĠD Nase
Ġun bound
Ġmet er
Ġdec ont
Ġneed ing
Ġhyp ov
Ġcomb ines
ĠQ OL
Ġmild ly
Ġinst all
ĠMy el
Ġconjug ates
Ġdecomp osition
ĠWil coxon
Ġgli oblastoma
ĠMark ov
Ġcommit ted
Ġnasoph aryngeal
M Y
U P
Ġf amous
il ate
ĠP ent
ĠR od
ax agliptin
Ġser otypes
Ġtr acts
Ġdisc retion
Ġprac tically
Ġstand s
Ġcyt ogenetic
ĠAt t
Ġrest rain
ĠCol on
Ġhemat uria
Ġpy rethroid
Ġseed lings
Ġmess age
Ġord inary
ĠEmb ry
Z E
p osed
re le
Ġfor th
am ole
ĠIn clusion
ĠG h
ep tive
Ġsur fact
atis f
Ġhyper thyroidism
17 9
Ġz yg
Ġter ritory
Ġpneum othorax
Ġmicrob es
ocys tis
Ġfellows hip
ĠRetrie ved
P t
Ġb urs
Ġ2 70
ĠM EN
qu il
ĠIn duction
Ġad ren
tr acting
ran ging
ist ine
ĠJ ump
12 22
19 98
Ġox ytocin
Ġoper ators
Ġul nar
ĠCT D
Ġcent rom
Ġele mental
Ġrepro gram
raz epam
Ġattrib ute
Ġattend ance
osc ience
Ġobl ique
Ġdress ings
G y
ĠS rc
ĠP CD
ĠN av
ĠB im
Ġout line
ĠK S
ĠK ong
ĠAl most
Ġfl ora
ha ve
Ġvers a
Ġphen ol
Ġspe ak
Ġmis car
Ġlic ense
ĠPot assium
amb uc
Ġincid ents
K T
d iff
v us
ti zing
Ġb ites
ĠI NF
ab it
Ġper ceptual
Ġpr int
ram ycin
Ġlocal izes
PC s
Ġsil ent
Ġinstruc tion
ĠBL AST
Ġadministr ations
Ġcran i
yrid amole
m ass
Ġbe at
ĠS ER
od ia
Ġr al
ĠE b
Ġinf ect
ip e
ĠSt aff
Ġhydro philic
Ġheter ozyg
Ġpalp able
S ec
c ut
e en
p air
p ower
Ġf MRI
ific ance
Ġcons ulted
Ġdiagn ostics
19 9
echan ical
ĠAm b
ĠDi abetic
ĠClinical ly
ats on
Ġchalleng ed
med ical
Ġschem atic
Ġske leton
iter rane
Ġquar tile
racycl ines
ĠGL UT
Ġchron ically
d ifferen
y lo
es tive
it an
Ġg um
ĠP il
ĠB ell
ĠG PR
ĠÂ ©
Ġmeth ionine
Ġconc ordance
Ġbi ochemistry
atric es
Ġsci atic
Ġtermin ated
Ġbub bles
X L
c ourse
ĠT CF
se ous
ĠH NF
ĠF VC
ĠG DP
Ġup right
over y
26 4
aff inity
met er
ĠDisc uss
Ġsu ited
Ġvas ospasm
Ġubiquit ination
nis olone
otherap ies
ĠInhib itors
Ġanesthe tized
asse mia
ĠTod ay
f am
f etal
ĠI so
um ann
ĠB oston
ap ar
ath iop
Ġen erge
Ġnon commercial
15 6
Ġmulti drug
Ġrecogn izing
Ġind oor
Ġacet one
Ġreason ing
rog lycerin
Ġthyroid itis
Ġconstant ly
luores cent
Ġadip onectin
Ġdab rafenib
ĠTum our
ĠProl ong
Ġrender ing
Ġchaper one
Ġbene ath
R N
Ġl ax
Ġv ent
ĠF ISH
tr an
ĠB ig
Ġle c
ym pathetic
Ġsp here
Ġform ally
Ġsw ollen
emb ran
Ġinduc ers
Ġpartners hip
Ġconform ations
cardi ac
ĠElectro cardi
ĠMart in
ĠRif ampin
Ġdispro portion
ĠAsperg illus
on em
Ġre imb
Ġpre treated
Ġexp iratory
tig raphy
int ended
Ġlog arith
ĠPA X
ĠDel phi
Ġbed aquiline
ĠSU MO
ĠAntib iotic
Ġinfiltr ate
Ġhern iation
Ġresemb les
Ġgalact ose
C ys
c irc
h oc
s kin
os ted
ĠC ortic
Ġ2 10
Ġsh ares
Ġhyper calcemia
pro gression
Ġwor st
ĠCol lection
Ġdiss oci
ĠSte vens
Ġstent ing
ĠDet ails
Ġswe at
Ġrupture d
factor ial
Ġbisphosph onates
re ach
Ġb esides
Ġn ap
od ine
pl ase
Ġle p
ĠL ig
ĠJ e
Ġprogram med
Ġendomet rium
ĠPsych ological
Ġhistological ly
ĠTF s
Ġtransamin ase
ĠCollec tively
laf axine
U B
c aus
r ically
t uzumab
ĠA h
ĠR IF
20 8
Ġ15 5
ĠSe iz
Ġthromb olysis
ameth oxazole
Ġhapl otype
Ġprednis olone
IQ R
P AR
d ays
Ġw ax
Ġf ric
ac cess
Ġl or
il ent
od a
ĠF at
ĠW ood
Ġco administration
ĠK ir
ĠPro ble
br ids
Ġstep wise
Ġpa uc
ĠComp rehensive
Ġutil ities
Ġpel lets
Ġround ed
Ġyouth s
Ġhabit at
Ġduc tal
arter ial
athiop rine
G ly
e ight
z y
ro in
Ġg ar
ĠM ary
ĠM UC
ies is
Ġreg istries
Ġâ Ĺ
Ġpa resthes
Ġbronch ospasm
Ġsem inal
ĠDM ARDs
Ġglut en
ĠGe orge
ĠSpecial ist
Ġantioxid ants
oxif ene
Ġdent in
Ġstraight forward
pregn ant
P ad
l ers
Ġt agged
el ch
Ġ2 30
oc cur
Ġmet agen
ide ment
ult ured
ros y
eth amine
Ġret urning
ethyl ation
mb itasvir
ĠApp raisal
Ġalg ae
stim ulating
GR ADE
ev ens
Ġosteocl ast
Ġantichol inergic
et om
ĠS CD
Ġpar ac
ater ally
Ġ13 9
Ġfat s
rup lex
ĠNH E
ĠPres ence
olin ium
prot ected
avor able
B NP
ĠC ry
op inavir
Ġsub tilis
Ġpos itives
Ġser ver
Ġconfirm atory
amil ies
ĠInter action
ĠIP F
Ġretro peritoneal
cephal y
phosphory lated
Ġmatern ity
d ark
k le
Ġo zone
ĠS LE
Ġsh allow
Ġdis aster
Ġph aryngeal
ĠV R
ĠPro ducts
Ġhyper activity
Ġfib res
Ġfac ed
ĠII b
otyp ed
Ġcop e
CO G
Ġlas ted
ĠTR F
Ġcul tivation
Ġelong ated
ĠFed eration
azan avir
azid ime
Q ALY
Ġs ave
an titative
ac le
ĠC it
ĠM ag
ĠB V
Ġmet ac
tis ts
Ġmamm ography
ĠEng ineering
Ġtransform ing
ĠVol ume
ĠFac ility
ĠAust ria
recogn ized
Ġn yst
Ġbe ad
enti ves
Ġmechan ically
Ġ13 6
ĠMed ia
ĠNon commercial
Â® )
ĠPe ak
Ġod ont
ĠMal ignant
Ġisot ope
oprop yl
ĠSurge ons
. :
ĠC MR
act ure
Ġsub sc
Ġco res
Ġimp uls
Ġinform atics
ĠPro phylaxis
Ġeduc ated
be at
ĠDo uble
Ġglucocortic oids
Ġrecre ational
A E
T here
Ã ¦
Ġan esthes
Ġe igen
Ġh idden
ĠS CI
ĠK ap
Ġdec e
arg ine
Ġmin us
Ġgra dients
aren cy
Ġtub ing
Ġremov es
Ġofficial s
ĠAnn ual
Ġcephalospor ins
ambuc il
F N
Ġs ati
Ġg anciclovir
ĠS um
Ġun iqu
Ġpos es
ĠCh rist
18 5
ĠRec urrent
Ġflav or
ĠRP E
Ġextrapol ated
Ġharb oring
Ġcombus tion
l aw
Ġt ape
Ġc eliac
Ġp ush
Ġnot eworthy
ĠJ ac
AT TA
Ġtr yptophan
Ġprim e
Ġ14 5
ĠPh yl
ĠAb sorption
Ġnorm s
Ġdelay ing
Ġgon orrh
Ġeosin ophilia
ĠPlasm odium
Ġthym us
Ġdur able
ĠVir us
ĠHO MA
lactam ase
Ġreinforce ment
o tional
er ts
es teem
as ions
Ġ( .
ĠH K
ĠB ID
ĠW ol
Ġco oking
Ġperform s
oss ed
row ing
Ġvol untarily
ĠIL D
ĠComp uted
Ġent ropy
Ġwound ed
Ġbran ching
Ġstandardi zation
Ġclar ified
Ġcardiomy ocytes
Ġunderes timate
h ou
as hed
ud an
Ġtr uly
Ġintr athecal
Ġarth ralgia
ĠSur face
ĠAp plication
dim ethyl
represent ed
ĠPolic y
I X
at acept
Ġd apagliflozin
ĠT yr
ĠT IM
up rofen
ĠL ear
Ġspec ulated
RNA i
ĠST Z
Ġconsum ers
Ġeng aging
Ġcolor less
fl urane
c ore
f eld
ĠS ir
ĠD IC
og le
Ġ3 75
ĠG on
Ġinter personal
Ġco ex
Ġunder take
ĠFor ty
ise ase
Ġprim ates
yn aec
Ġgluc uron
Ġocc asions
Ġfund us
Ġtherm odynamic
ĠDoc ument
Ġta ught
dans etron
T OF
b is
p ed
t oxin
il ance
ĠA de
ĠP age
16 9
Ġ13 3
Ġill icit
Ġcent ros
Ġsix th
Ġov ulation
opic lone
ifi able
omegal ovirus
Ġ{ {
ÃĦ Ã
Ġhypon atremia
R B
ati al
ĠN ature
Ġdi visions
Ġchar ts
Ġiniti ative
Ġflow ering
Ġdown ward
Ġfraction ation
ls bad
Ġamb ul
Î¼ l
Ġgir l
Ġbrach ial
Ġneighbor hood
ĠHaem ophilus
Ġdetox ification
Ġsophistic ated
W s
k inson
l acZ
om iasis
ĠD AS
ĠH PA
ĠF etal
Ġprob ing
ĠDi rec
ĠGen omic
ĠTr im
ĠAB A
ĠSw iss
Ġseas ons
ĠTF II
Ġrig idity
Ġvic inity
Ġneutrop enic
pi ece
ishman ia
itid ine
3 01
d r
o ichi
Ġt onic
Ġst och
ĠI RS
ĠF oot
Ġpre requ
ys mal
ĠL at
Ġsub lingual
Ġincre ments
Ġout patients
ĠÂ ·
Ġconf ident
oph obia
15 4
Ġgra duate
Ġtra pped
ĠIV F
Ġocc ult
Ġsleep iness
ĠReg ardless
Ġeas tern
apt an
Ġstabil izing
Ġpack ing
Ġpredis pose
ĠNov artis
Rec ommend
azop anib
P romega
c itation
Ġre jected
ĠT re
Ġcon gr
ĠI PD
uc cin
ĠH odgkin
ĠN ox
ĠN IV
ĠN obel
ĠJ ones
rel ations
ĠAll ergic
ish able
Ġdys kinesia
ĠPD K
Ġslow ing
Ġremark ably
Ġimmuno assay
Ġf un
ĠT L
ĠT AT
ur idine
Ġ3 40
Ġdetermin istic
Ġbuff ered
ĠIs ra
ĠMet S
Ġadapt or
ĠSS RIs
Ġcontamin ants
Ġpay ment
ĠTob acco
T her
d c
h idden
i aceae
Ï ĩ
ĠA Q
ĠV P
Ġimp acted
Ġ19 71
ĠAn tic
16 4
ĠY ang
17 3
ĠCT C
Ġtop ology
Ġprost atectomy
Ġinduc er
Ġsi rolimus
Ġpenet rate
ĠmTOR C
stin ence
ĠKR AS
f A
ar ate
od ec
ĠM ob
th s
ĠR ating
Ġad ver
ĠB I
Ġtrans m
Ġser ogroup
Ġver ification
ĠPD B
Ġepis odic
Ġpal m
na ive
ĠSur prisingly
Ġpack ages
Ġaug ment
Ġoverexp ressing
Ġchim eric
rystall ine
quar tile
? "
C hen
ĠT ween
ĠC arbon
ĠM TT
ĠM RP
Ġprim itive
Ġhyp oplasia
Ġ16 5
Ġvi rological
Ġthem es
Ġrespir ator
acid osis
Ġpericardi tis
Ġstring ent
O n
v ec
Ë Ĩ
in ite
Ġw ards
ĠT GTG
Ġis lands
ĠA ward
ra k
Ġr ac
Ġup set
Ġend ovascular
Ġ12 00
ĠCa M
Ġneuro blastoma
ĠAP E
ĠÂµm ol
Ġubiquit ous
Ġground s
etermin ate
Ġobser vers
ocor tical
Ġcomfort able
ĠSched ule
ĠACKNOWLEDGEM ENTS
iterrane an
N ational
Ġf ight
Ġg rew
ĠP all
ĠP PD
Ġwas ting
ĠL P
ep tidase
ĠCT GT
Ġcur ved
Ġcr yp
Ġmelan in
Ġaug mented
random ised
Ġjustif y
Des cription
ĠNiger ia
Ġmicronucle us
F V
U K
Ġpro xy
ĠD anish
Ġpre operatively
ran olol
Ġper ic
ult ures
Ġyear ly
Ġwork flow
Ġstrateg ic
Ġcry opres
Ġbackground s
Ġcav ities
Ġsuperior ity
Ġimmunoprec ipitated
ĠGW AS
cholester olemia
z ens
Ġal opecia
di i
Ġhe al
ĠO m
Ġwe ather
Ġco factor
Ġgl argine
Ġdirect or
ĠNe ed
Ġresearc hed
math bf
oderm al
ĠMeasure ments
Ġcrypt ococcal
Ġdib romide
P LA
Ġt ym
Ġs ar
Ġb ending
Ġe jac
ĠI OP
ĠM uch
te gravir
Ġinf requent
Ġimp lying
Ġnon prescription
19 5
ĠZ S
Ġpsych otherapy
EM ENT
Ġload s
Ġfav ored
ĠIniti ative
cor rected
ĠFox p
Ġthous and
Ġtors ion
ĠEcon omic
ĠGauss ian
ĠColumb ia
Ġv alsartan
Ġcomp uting
Ġk Hz
Ġtw ins
Ġfl are
hy brid
ĠPh armaceutical
ES I
roscop ically
Ġstress ors
ĠCo hort
Ġphot ographs
Ġshe ep
Ġste am
Ġturn s
Ġpert inent
Ġpunc t
Ġneurode velop
Ġlar val
ĠAyurved a
Ġm akers
Ġm atrices
ĠD ry
Ġch air
Ġass istant
ĠU GT
Ġlead er
ĠPr imer
Ġangi ogram
oe ae
Ġsem in
Ġaud i
ĠCd k
ĠImport ant
lamy dial
idel ity
Ġhear ts
benef it
2 12
ut ory
Ġv iti
Ġat orvastatin
Ġac upuncture
par ing
RE r
Ġcross es
miss ible
Ġadvance ment
PK C
sam ple
S OD
Ġt idal
ent ary
ĠT oxicity
Ġal arm
ad renal
ĠN GS
ĠG EN
ĠG ynec
we gian
ĠV ps
con ditional
yle phrine
Ġneg lect
Ġdiscl osed
Ġconfound ers
Ġtag s
) ),
B o
G ene
H Bs
S yn
s l
in oc
um n
ĠM end
ĠW B
Ġun equ
ĠK en
Ġ9 11
hed rine
Ġhyper ther
Ġlack ed
Ġpen ile
Ġdivid e
Ġaud ience
azep ril
Ġ** ,
........ ........
quir y
agrel or
j ournals
Ġthe r
el a
Ġn arr
Ġpro jected
ĠH Q
Ġam ine
hem e
Ġclass ifications
GT GT
ĠHist ological
ĠÏ ģ
Ġreturn s
Ġsuperv is
tes y
Ġleaf let
eft azidime
Ġtriang le
Ġzol pidem
M H
ĠF inal
Ġdis assembly
ĠB erg
te f
ap arin
Ġsp end
Ġrep aired
Ġconf ers
Ġchar coal
Ġcer tification
Ġsitu ated
ĠEffec tiveness
Ġcatal ysts
ucl ide
C NS
K a
b c
b il
ti r
Ġp ector
Ġd sDNA
ĠT ren
ĠS we
ĠS AS
ĠD ip
ĠR ate
Ġtwo fold
16 6
reg ulate
ĠStud ents
Ġdil utions
ĠRep eat
Ġliqu ids
ĠTechn ical
ĠFour ier
Ġvacu oles
Ġdepic ts
Ġmetall oprotein
Ġinequ alities
Ġrepress or
b iology
â Į
Ġd ere
ĠS till
Ġv ac
ĠP eter
ĠH p
end a
ĠG od
Ġincre ment
co unter
ek e
urren ce
17 8
Ġfail ing
Ġ13 8
40 50
28 2
Ġure teral
Ġepidem ics
Ġadvoc ated
Ġcham bers
Ġars enic
f ixed
t rombopag
v oflurane
in dex
Ġf asted
Ġ( %
ĠF ITC
ore n
ĠB is
end ly
Ġen orm
ha i
ĠSe vent
yr ate
ĠReg ular
Ġbr ush
otrop y
ĠGP I
Ġfresh ly
Ġmar ried
itum umab
ĠIde ally
character ized
ic an
ot axis
ĠP ut
Ġde oxy
ĠB irth
tim ation
Ġmon ocyte
Ġsp ondyl
ĠWe ak
19 4
Ġca vern
Ġelectro chemical
Ġmac rom
exp ensive
Ġchlor oquine
Ġeryth ropo
ĠTra uma
ĠFL AG
ĠHom o
' "
Ġw ing
Ġm ag
Ġm osaic
om ab
un a
ĠB ran
Ġdes ensiti
ĠSt op
Ġpost ure
ograph ically
Ġdetermin ations
ĠBl ock
Ġbran ched
ĠAre a
meas ured
ĠDecl aration
z i
ĠF NA
ĠV EN
Ġage ing
AR C
Ġeth inyl
Ġcommunic ating
ĠTen ofovir
Ġanch or
yse al
oprot ective
F H
o val
v inyl
Ġt all
en na
Ġl atit
th irds
ĠR im
ers on
ĠE Cs
Ġdo or
Ġ14 7
ĠRNA P
ĠCT CF
equ ivalent
Ġadequ acy
ĠNeu rop
Ġpreced ed
oprol iferative
Ġcultiv ars
i etin
l ay
Ŀ ĳ
ro blasts
id opa
Ġl asts
ot opic
ĠH op
ĠF FA
ĠE lim
ĠN ausea
Ġimp rinted
ann ab
ĠPr p
Ġgu anine
ime tidine
ĠSyn thesis
Ġmyel in
lam ed
ĠPU FA
ĠDom ains
Ġtin y
Ġmerg ed
l ayer
o C
Ġo mitted
st on
ĠG ERD
ist ar
Ġsp iral
Ġ19 0
Ġform oterol
Ġradi ologic
con ver
AD P
Ġcos mic
atur ity
Ġglut amine
ĠBP H
ochrom ocytoma
Ġalumin ium
Ġtraject ory
at eness
ĠT an
end ronate
ĠG astric
unc hed
Ġsequ entially
16 7
Ġlit term
Ġsuc ce
Ġent ries
actic es
load ing
Ġdraw back
ĠCF U
Ġcough ing
Ġimpair s
Ġarri ved
Ġimmob ilized
Ġphilosoph y
F TC
es onide
Ġw at
Ġd iazepam
ĠS PC
og astric
ĠE E
ĠB ul
ĠL DH
ĠK ar
Ġfound ed
Ġtr acing
lev ision
GT P
ĠSP ECT
}} }
Ġbud esonide
Ġ(+ ),
enop us
Ġcylind rical
o j
Ġa k
ig an
Ġfol ded
Ġappro ached
Ġflu ticasone
orph y
arr hythmic
Ġorth ostatic
Ġveh icles
Ġcool ed
IK V
B ased
L U
l ot
m akers
Â Ń
ĠT ak
im ers
ĠA AT
Ġst ack
Ġv oting
Ġ2 37
ib b
ĠM amm
ĠF F
NA T
form e
ĠV III
Ġhy brids
Ġpost marketing
23 5
Ġmat urity
Ġcollec tively
Ġcer tified
ĠMedic are
organ ization
Ġconver ts
Ġspati ally
Ġobvious ly
Ġimmunosupp ress
Ġ(âī ¤
health y
Ġjug ular
* ,
l ative
m ide
s ky
Ġp aternal
ĠS ES
op tic
ĠH fq
ĠB ol
Ġper ine
Ġpar acetamol
ap ing
Ġsp arse
ĠUn its
yn chron
Ġmy ofib
IN D
ĠDis co
Ġble ed
Ġhom od
mic ro
ĠCompar ative
olip oprotein
ĠECM O
ĠBiom edical
F c
b ur
l en
Ġd amp
ul ism
ĠC as
ĠI PV
ĠD iss
ĠH ard
Ġdis odium
ĠL ith
Ġmo tivated
Ġform ats
ĠAs pirin
Ġes ters
Ġaut hentic
pos ity
Ġoste omyelitis
ocal cemia
Ġchlor ambucil
Ġcorrespond ed
Ġonc ologists
Ġnic otin
Ġsynthes ize
Ġleth ality
orig inal
f in
f oli
v iv
w ear
z ol
Ã ¸
Ï ĥ
ĠR en
Ġab normally
Ġk ne
ob ox
ON E
Ġthick ened
ĠNew ton
ĠNor wegian
rac onazole
Ġrobust ness
Ġprogen y
ipl ostim
Ġastro cyt
ĠDiff ic
Ġfulf illed
ĠCarcin ogenesis
Ġaward ed
Ġhams ter
prof essional
Ġphant om
S MA
Ġs s
Ġre traction
Ġbe ams
ĠF TC
Ġres ide
Ġcomp ressed
Ġun intended
Ġcomb at
18 7
Ġnucle ase
23 4
In ter
Ġdiscontinu ing
Ġsmok ed
ĠTA F
Ġstain s
Ġbook s
Ġconjunctiv itis
Ġril pivirine
c ens
in divid
Ġs ort
Ġ2 24
Ġsh aking
ub ric
Ġint akes
hed ral
Ġmor al
Ġcollec tive
Ġ17 7
IN K
Ġprogram ming
Ġblock age
ĠAr ticle
ĠCons erved
Ġrank ing
Ġpopular ity
ĠIGF BP
ĠPseud oc
Ġcaud al
] ),
Ġa eti
ĠD AA
ĠH N
âĢ ľ
Ġun ion
Ġimp osed
20 4
Ġtop ois
abel ed
emb ry
ĠIncre ase
ĠMut ation
Ġmism at
Ġrefriger ator
ĠAntim icrobial
l asting
Ġt ears
il ast
ĠI OL
Ġ2 26
te plase
Ġcont ing
Ġend ed
ĠCl ar
cent red
29 8
resp onding
Ġtop iramate
Ġenh ancers
ser um
ĠTrans ient
ronch ial
Ġsurvey ed
ĠAnti retroviral
avi an
Ã³ n
ster oidal
re duction
Ġc ing
ĠT ox
im etic
il umab
Ġat ovaquone
ĠH orm
Ġcl oz
Ġpos ter
Ġbut ton
Ġ19 73
Ġser otype
Ġâ Ĥ¬
Ġ14 6
och lor
Ġble omycin
Ġinstit ute
Ġveloc ities
Ġpredis posing
Ġath le
Ġâĸ º
vie we
ĠLew is
9 00
W all
ra pped
Ġr id
ĠIn vol
Ġme g
Ġrel apses
Ġfol ate
ĠAs p
17 7
ID E
Ġscar ce
Ġoss ification
Ġketo acidosis
b ell
c f
r t
Ġw rite
Ġw itness
Ġim ported
Ġcomp ress
act or
Ġinter cellular
Ġneu rogenesis
sc an
sc reen
Ġneuro imaging
pr int
Ġreal ized
Ġsil k
Ġampl ify
ĠVari able
ĠDet ermination
Ġshif ting
Ġbac illi
Ġprogest in
pharmac ological
Ï Ģ
en tion
Ġthe ophylline
if l
am an
ĠL OS
Ġra m
Ġimpro per
ink i
Ġâ Ŀĳ
hel or
ĠAt l
ĠCT A
Ġhom ogenous
ĠOcc asion
Ġho ok
Ġacryl ic
ĠInstr uments
ĠTd ap
ĠRelations hip
ĠBenef its
Ġgonorrh oeae
ic l
ig enic
ĠL PA
xim al
17 4
ĠZ ol
ĠSe a
EN S
Ġens ured
Ġtransf ers
Ġconn ect
Ġclos ing
Ġdex trose
Ġms ec
Ġechocardi ographic
ĠArab ia
Ġconstitu ent
Ġdivertic ulitis
transcription al
: #
C t
E ng
c iximab
g amma
Ġg aining
Ġcon idi
ĠC ream
pl ane
ren ew
rol ase
Ġqu ies
ĠK I
Ġser ology
Ġprol actin
ĠSh ig
Ġrib onucle
Ġcheck ing
immun ity
struct ured
Ġvertebra e
Ġnal oxone
l apse
l anes
n our
Ġw ishes
Ġb ats
Ġn ond
ol ac
ĠE H
ĠG le
Ġinf erence
ĠO ld
iv ocal
ip ed
Ġsp aring
ĠSt an
ĠAt rial
ĠMed iterranean
sc hem
Ġemerg ent
Ġadi posity
Ġbronch odil
Ġdoub ling
Ġimmob ilization
Ġdial ys
Ġdeaf ness
Ġhyperkal emia
Ġpurp ura
Ġp ione
ac onazole
ĠI b
ĠF lex
ĠIn nov
Ġse vent
ĠG AS
ch annel
Ġk iller
Ġun predic
Ġsc ars
ĠÎ º
19 97
30 4
ĠPh ilipp
Ġdist ortion
Ġfac ts
Ġprior i
ĠTB I
Ġstaff ing
Ġantigen ic
Ġfind s
tes ts
artic le
Ġbuilding s
nucle in
Ġcomplain t
Ġadvoc ate
ĠHead ache
Ġdebr idement
quad ruplex
Ġcloz apine
T ype
Ġin tim
Ġin expensive
Ġw orm
it ting
im in
ati te
am yl
ate ver
og rap
yp ro
25 96
âĢ² ;
Ġbreast feed
Ġolig os
Ġwash out
Ã Ĩ
an ia
Ġl ift
Ġg ermin
ĠP he
ri ve
ph ae
Ġsup ra
Ġout let
hen yl
sy nuclein
Ġadv ent
II a
tor al
Ġstress ful
let t
Ġcri zotinib
ĠLe ishmania
amil ton
bs iella
Ġseg mentation
ĠDel ayed
ĠVi ew
Ġincid ental
ĠNAC I
inferior ity
Ġnos ocomial
3 25
Ġc esarean
or tions
Ġg ot
oc ent
ine tic
Ġop ac
18 8
Ġnucle osomes
of ten
ĠIC P
ĠNe onatal
Ġtransl ate
Ġgr ass
fil in
P ur
Ġc occ
Ġcon ceived
Ġal ve
ĠH els
ĠG c
01 9
iver se
Ġexpect ation
Ġtravel ers
Ġcompet encies
ĠPF K
Ġlam ell
Ġhighlight ing
glycer ol
Ġoutdo or
A ss
Ġc c
as min
ĠC lo
ĠP ID
qu otes
ad i
ĠB S
Ġit raconazole
Ġab stinence
CT GT
art um
Ġhem ostasis
Ġorth og
Ġmus ic
che ck
ĠCONCLUSION S
Ġpsychiat ry
ĠLast ly
Ġlandsc ape
" '
B arr
d m
d ens
r f
Į ÅĤ
Ġn ested
ĠG ad
ast ine
ome p
ach us
Ġqu inol
Ġ19 74
Ġrece iver
Ġmeth ane
ĠAs c
ĠCh loride
ov orin
14 15
Ġsol ve
Ġtherap eutics
raz ine
Ġhemat ocrit
Ġopp osing
Ġstom atitis
Ġdeb ilit
diagn ostic
Ġsph ing
Ġfabric ated
lat asvir
Ġharv est
ĮÅĤ ÃĨ
/ ).
F OX
H PV
c reatinine
at able
Ġto e
ĠP osition
Ġne go
par tial
âĪĴ )
rop ylene
Ġel ution
Ġdom inance
Ġtox oid
Ġhis tidine
Ġport able
ĠSuccess ful
tem perature
Ġ(- ),
Ġunw anted
conf irmed
Ġchim panze
ĠTu key
ĠCaps ules
Ġexcurs ions
B O
L ys
o zyme
in atum
Ġc ations
Ġin timate
or tex
Ġst ory
am cin
Ġsub class
out heast
Ġmod ulates
Ġpos texposure
Ġimp recision
20 3
Ġbre aking
ĠCo ord
ĠCa Cl
Ġplay er
Ġmagn et
Ġintr igu
alian a
ĠSecond ly
olec ule
ĠFA CT
Ġgovern ments
Ġvisit ors
ĠMal ays
ĠADP KD
mid dle
Ġappreci ated
Ġcock tail
opur inol
amcin olone
g ray
Ġp un
Ġ( Â£
em inal
Ġinc entives
ĠB G
ch icine
Ġinter phase
Ġsp ong
cur sor
ten ess
Ġmulti factorial
Ġhist ogram
ĠX enopus
Ġintra hepatic
Ġmultiple x
Ġlymph oblastic
activ ating
Ġind istingu
Ġintr anasal
hyth ms
Ġdimin ish
Ġperoxid ation
Ġsediment ation
ranul ocytosis
Ġcoverslip s
ĠLiter ature
P AC
at rogenic
ic tor
ĠT MP
os ylation
ĠM ening
ĠB PA
ĠW alk
iss on
Ġstr atum
ĠSt em
Ġ16 2
Ġparticip ates
ĠEn c
ĠPre vent
Ġanaly se
Ġenter ic
Ġhous ed
obacter ium
Ġcommission ers
elec tro
-------- --------
Ġerup tion
oce le
Ġoroph aryngeal
J S
c atal
l ate
Ġb old
og rafts
ĠN CT
Ġmet ers
ĠCh ol
ĠSh in
Ġaden ovirus
Ġdri ves
Ġves icular
bi ased
Ġlact ating
pat asvir
Ġincision al
Ġaver ages
Ġtransp arency
Ġurg ency
Ġkinetoch ore
Ġbarbitur ates
: "\""
P re
R ON
l m
r um
Ġfor ceps
ĠC old
res cent
th i
Ġdet ergent
ĠCl ose
ĠAr m
ĠCA B
ĠPer haps
ĠSch iz
Ġfraction al
Ġmelan ocytes
rex ia
"" '"
Ġinstrument ation
ĠLM WH
divid ed
"\"" "'
:"\"" "\"""'
""'" }.
:"\"""\"""' ""'"}.
i ang
l ades
Ġd f
st an
Ġpre y
ĠL ive
Ġco ast
ans on
ĠJ er
Ġend osomal
rit ten
ĠCl uster
oster oids
Ġsupp ressive
roid s
Ġcontext ual
Ġste ering
struct ure
St udy
Ġtib ia
Ġguarant ee
Ġcoch lear
I CAL
c gi
Ġde formation
ĠG ent
ĠO V
Ġapp ra
ber ts
Ġsequ es
MP A
ĠBec k
Ġneut rons
ĠMA HC
ĠCere bral
ĠRecomb inant
ĠLit tle
Ġdece ased
2 18
r un
in ch
le e
Ġth aliana
ĠG AB
ĠO GTT
enc oded
Ġpres ervative
Ġmul til
Ġpat ency
Ġaccess ing
Ġphot osynthesis
Ġextr insic
ĠFour th
Ġvar ices
Ġtele medicine
Ġmicrob iology
Ġsti r
Ġempt ying
Ġinfiltr ates
Ġjoin ed
lem tuzumab
ĠCRE B
Ġallevi ate
Ġille gal
b B
l ived
s ensitivity
in osis
Ġp cDNA
Ġb orders
ac i
Ġh ood
ab r
Ġ2 35
ĠM ove
eren tial
ek ing
19 6
Ġimmun os
atis m
reg ulatory
Ġanaly zer
ĠPer i
Ġcontrac tility
Ġpy razinamide
Ġsoci etal
idi rectional
Ġuna ware
Ġbrid ging
ĠKle bsiella
Ġtram adol
Ġpauc ity
ĠAde qu
B a
Ġt ilt
Ġa ur
in ducible
as g
Ġn il
un ce
il ic
Ġsh oot
ant el
ĠG il
iss eria
Ġimp ulse
Ġj et
Ġur ination
ĠPr ism
ĠCompar ing
Ġhim self
ĠCop yright
B CL
Ġb omb
il ation
ĠI TT
ĠS el
am n
oc arp
ĠM as
ĠB os
ĠU AS
Ġco b
000 5
17 1
ĠSec ret
ĠUs es
ĠConf erence
vas ation
Ġartif act
Ġinadequ ately
Wh at
Ġgent le
Ġescal ation
Ġancest or
ĠHels inki
2 25
ĠP Y
ri k
Ġad dic
ĠB am
ĠPr actices
ĠRad io
Ġbed time
Ġdiver gent
ĠCar lsbad
ĠPart ners
Ġbag s
ĠPAS I
ĠStrateg ies
Ġeyel id
albumin uria
Ġperce ive
ĠZS CAN
/ )
M ET
Q OL
g L
s um
v ities
Ġt ent
ic ially
Ġto facitinib
Ġr hythms
ĠF ore
ĠB ill
Ġco iled
Ġspec ially
Ġhyper insulin
Ġche wing
aps one
ĠSp earman
Ġinser ts
Ġind eterminate
Ġvaginal is
ĠSupport ing
Ġpure ly
Ġstrict ures
ukin umab
Ġtric uspid
ĠTK I
Ġcasual ty
2 30
} ,
Ï ī
ĠA FP
rom atosis
ĠN utritional
ĠB CL
Ġtw elve
ĠAs ians
22 1
the rapy
Ġsl iding
Ġax es
ĠSub group
Ġangi oplasty
ĠIs lands
Ġconsult ing
ĠFrank lin
F O
M F
Ġs ays
Ġe g
ĠA er
Ġst a
Ġal titude
ĠE CT
ĠG ro
ĠL ink
Ġinv ad
Ġmem ories
ann ers
ĠRe action
Ġlo os
oz ol
uter ol
ĠAg ents
Ġrif ampicin
ĠPo ison
Ġlif elong
Sm ad
Ġvig orous
Ġcub ic
alcohol ic
asthen ia
Ġvio let
Ġstoch astic
A CA
b el
as ure
Ġr t
ĠB ax
ĠW ill
ĠJ u
bo ard
23 9
RE X
ĠSp ace
GA CA
ĠTr k
Ġana esthe
ĠAg ric
Ġsed entary
ĠTNF Î±
Ġneph rotic
Ġstri p
Ġcytos keletal
aste ur
eps ia
Un iversity
sur face
Ġcolocal ization
Ġredund ant
Ġindistingu ishable
M o
Ġm ission
ac ids
ĠS lo
se lected
ĠR y
Ġad s
ĠL ind
ĠV S
ĠSt art
Ġpain t
Ġmicro v
Ġoff ices
ĠSim ple
ĠNeu rological
Ġpup il
Ġexer ted
Ġconjunctiv al
Ġevapor ation
Ġaqu atic
Ġimmunore activity
Ġinvest ment
T ables
in ducing
Ġc italopram
Ġe V
ĠC ord
ĠC CT
Ġst ear
ĠS on
ĠN ine
Ġhe roin
ĠW atson
als al
Ġmulti forme
Ġbre ad
Ġ16 6
ĠGen us
ĠBi ochemical
Ġmar ital
Ġcommission ing
ĠBel gium
Ġglycoprotein s
Ġmiscar riage
he al
ol ium
Ġl onge
ĠL ane
Ġinter ven
form ula
Ġany where
19 7
Ġ15 8
30 2
ĠChem istry
ĠAA V
Ġdipl oid
Ġsoy bean
Ġtraject ories
Ġmacrol ide
Ġprostagland in
V L
Ġs aved
ĠC CD
ĠG as
Ġpres erving
Ġblood y
rel ative
Ġsk ew
Ġvis iting
22 6
Ġpul led
amp hetamine
Ġmes othel
Ġeti ologies
Ġinstrument al
Ġfist ulas
Ġpalp itations
Ġphospholip ids
Ġunderl ie
Ġfluoroquinol one
war f
Ġgalax ies
Ġci ency
Ġc age
Ġn c
Ġg aze
ĠI l
ĠM PA
ĠF requent
ĠB ack
ens en
Ġover growth
Ġpath ologist
Ġmic rosp
ĠPro state
Ġflu oxetine
Ġanaly tic
ĠIV C
Ġhis ti
Ġintegr ins
Ġlys osomes
oxid ase
Ġinhal er
chlor oquine
ĠCommun ication
ĠGTP ases
Ġsulfur ic
D N
k it
Ġas leep
op he
op ter
ĠM IP
em ias
Ġle iomy
Ġcan als
ĠL ep
ill es
ap ular
Ġmed ullary
Ġmed ulla
cur acy
ob inostat
ex y
Ġrepro duce
Ġdil tiazem
ĠSpec ies
ou x
ĠDisc ontinu
mod el
ows ki
Ġflat ten
Ġtex ture
ĠSac charomyces
Ġb ark
Ġe zetimibe
ot ri
ĠC z
res ia
op ing
ag le
se pt
ĠM DS
ĠF C
Ġdis cer
ĠV ar
ĠAs h
Ġconf lu
Ġpol ice
Ġpath ologists
iqu es
AN ES
oplasm osis
ret inal
Ġhard ness
Ġcompet e
ĠAnd rew
Ġnanopartic le
Ġconven ience
ĠLine ar
Ġmitig ate
Ġanthrop ometric
ĠACKNOWLEDGM ENTS
0 26
ar cer
od em
ĠP HD
up loid
ĠB NP
Ġcomp iled
ĠG AG
Ġper iv
Ġexp ense
Ġunder graduate
ten e
Ġimmun ologic
ĠCh oice
opl asts
Ġ17 5
Ġi ii
Ġsuper co
Ġwor ry
Ġphot ograph
Ġmild er
Ġalle lic
Ġvas opressin
ĠTH P
Ġhor se
Ġalkal oids
Ġretin oblastoma
Ġprov ince
Ġcour tesy
Ġcampaign s
Ġhypogonad ism
m ond
Ġa a
Ġre operation
Ġh its
Ġh rs
ol ization
ĠS ET
Ġ2 38
ure tte
ĠF PG
ĠR ates
Ġinf lamed
Ġcont acted
Ġ20 22
Ġ16 8
Ġcop yright
Ġpractic ed
ĠIFN Î³
Ġstain less
Ġbru ising
Ġsubsc ales
achus etts
B E
N i
e ated
m u
u y
oc utaneous
ag et
ĠM ixed
ref ractory
Ġsub scale
Ġsign atures
jec tively
CA D
cent ered
Ġprop ionate
Ġbenz oyl
Ġadvantage ous
Ġrot ational
cor tical
cor tisone
Ġclon idine
ĠMeas ures
Ġhypox emia
Ġresembl ing
Ġpathophys iological
d isease
s ki
ĠC t
od ys
rom ic
ĠB us
Ġco herent
ox yp
Ġam plic
Ġsp he
Ġop aque
Ġ14 9
Ġrandom isation
Ġz y
cep revir
onal d
Ġpack aged
Ġgraph ite
phen idate
Ġrespir ators
ĠPt d
tral ine
ĠInd ust
Ġproc urement
Ġantihist amines
Ġintrigu ing
E ARCH
l iving
at ars
ĠA ortic
ĠI schem
ell ers
ym ethyl
rec tal
over s
Ġox aliplatin
Ġparen chymal
ĠMod ified
usp ension
Ġmono hydrate
cob acterial
Ġneurode generation
lab elled
ĠFif ty
fem ale
Ġenforce ment
etom idine
A HA
L uc
S ah
d ue
d imer
f unctions
o ys
Ġa per
in is
Ġg out
Ġst alk
ĠI PC
ĠP oint
Ġgen omics
Ġcomm ittees
Ġ19 72
ĠAl g
ĠAn terior
ĠThere after
Ġwhere in
Ġmut ually
Ġhyper lipidemia
18 6
Ġte levision
34 2
Ġcapac ities
Ġprote omics
ĠPP H
Ġbenz ene
ĠIR F
oli osis
Ġunivers ally
Ġadvoc acy
Ã¡ n
Ġsurprising ly
, ...,
Ġt ing
en berg
ĠT ermin
ot rig
Ġas eptic
od i
ĠM r
ĠM AD
ĠD ul
Ġde acetyl
ĠR AP
tis h
ov es
Ġspecific ations
uff icient
Ġcyt ometric
34 4
ĠDiagn ostics
Ġconstit uted
lect in
iment in
Ġcytokines is
S te
Z V
b iological
m ature
at adine
Ġth iol
ot on
ĠC eftriaxone
Ġat tract
Ġat azanavir
ĠH off
og y
ĠE gg
ub ic
ĠV es
Ġrep ressed
19 8
Ġpol yn
ĠUn less
Ġ15 4
Ġox y
see ing
Ġresid ency
orph ous
Ġrepair s
Ġlog ic
fl uid
ĠTem perature
Ġleth arg
Ġsulfonyl urea
Ġnephrot oxicity
ilden afil
I f
Ġd educ
ĠC lear
em an
ĠR iver
ore l
ĠO verex
Ġcont ag
Ġinter play
Ġk Pa
ĠCh lamydia
Ġ14 2
ĠCa rol
ĠElec tr
amb da
ĠImage J
Ġdeform ities
ĠFac ulty
ĠProced ure
leb itis
bet ween
ĠTreat ing
H sp
es cent
Ġre visions
us al
ĠT it
Ġis omer
un ters
ĠE AC
Ġk appa
Ġaut onomy
Ġhyp ere
ĠPro duction
Ġchem il
40 8
Ġtub ule
agon ist
Ġcaps id
angi otensin
Ġexacerb ate
Ġla unched
Î¼ g
ĠMc C
Ġaver aging
Ġcataly zed
ĠNT M
Ġfulf ill
Ġmonol ayer
H V
H a
R OC
d yn
m ercapt
Ġt aper
re mia
Ġf umes
Ġe rec
Ġth ing
ĠIn dependent
str ate
ĠK an
ĠK IT
ile y
ĠIndi rect
Ġfrag ility
rent uximab
Ġold est
Ġbed side
Ġonc ogene
Ġsac ral
Ġeditor ial
S NP
U D
l izumab
n icity
Ġt ang
Ġc eftriaxone
le ading
ĠI KK
am ides
oc t
ag ers
Ġsh ot
per fusion
Ġinter change
Ġall ograft
ob i
ĠY east
ĠCon trast
Ġmat ters
Ġdys regulation
oster ic
OR F
Ġmethyl ene
Ġagg ress
ĠPP P
ĠSever ity
ĠTR AP
ĠUl tra
Ġile um
Ġelastic ity
omyc osis
Ġbif urc
ĠPseudoc ercospora
otrig ine
2 16
I SA
h ran
s is
w est
ĠT SC
Ġl ubric
im plantation
Ġst oichi
Ġout dated
Ġmon os
ef ul
Ġfl ight
Ġtechn ological
ores t
Ġ14 8
Ġlip osomes
Ġstop s
oe lectric
ĠCare ful
lit re
ĠAst h
Ġchor oidal
Âº C
Ġhon or
pred nisolone
Ġendoc rin
Ġhypothes ize
ĠMultiv ariate
a vidin
w id
Ġt ired
Ġc ada
Ġn ations
Ġv iv
Ġ2 90
ĠM TA
ĠH apl
Ġinf est
ĠV eter
20 7
Ġset tle
Ġ15 6
Ġed it
IC ER
Ġche w
Ġprote olysis
Ġgran ted
ĠPol ym
ĠSign ificance
Ġcommunic ations
Ġproce eding
Âµ m
ĠContrib utions
ĠOv arian
Ġviti ligo
M od
P EP
Ġm oxifloxacin
ĠT AP
ĠA NA
ĠS EP
ĠS etting
ph ia
ĠG GACC
erv ice
Ġwork force
Ġep iph
Ġhyper cholesterolemia
ocy steine
ĠNe isseria
Ġgu inea
Ġsulf ide
Ġphysiological ly
Ġparas it
Ġhapl otypes
Ġhors es
ĠIsra el
Ġw aters
Ġd entists
Ġf als
Ġth r
ĠI NS
Ġor ific
st en
ĠD avis
Ġexp ose
Ġtri phosphate
ont o
Ġiniti ates
Ġmy x
Ġaltern ating
Ġmis oprostol
Ġsuit ability
Ġrh od
Ġinterview ed
odon tidae
Ġlook s
Ġpurch ase
ĠKn ock
- /-
G EN
Ġc iti
ic ill
os amine
ra i
ĠS om
ĠM ix
qu es
ĠH arvard
ĠG AL
osp here
RT Is
ĠNO X
Ġthor ax
ĠVi et
si RNA
Ġacryl amide
prol iferative
Ġsomat ostatin
Ġsacrific ed
C ON
V AS
c ost
Ġb an
le ad
im urium
il in
Ġst yles
ĠS AD
tic es
ĠM t
Ġr ises
ĠG em
ĠTh r
ack er
AT AT
Ġ15 3
ĠRec overy
Ġarter io
Ġheart beat
Ġer adic
Ġinser tions
ĠBi ot
Ġcathe psin
com par
Ġpredict able
UL AR
Ġdeep ly
ĠElec tronic
Ġconv inc
Ġspermat ogenesis
Ġcran io
ophthal mic
otax ime
ymet rix
ĠBrit ain
ĠLear ning
nour ished
0 29
0 35
A SA
C or
f et
t urn
Î ¸
Ġthe atre
ĠT NM
ri er
Ġad efovir
Ġsub mit
Ġrecommend ing
rel im
Ġsol ving
18 9
TT TT
Ġlig ated
Ġbr ack
Ġcompl ained
Ġtravel ing
cler osis
Ġsudden ly
Ġgast ritis
Ġpoin ting
ozol omide
B ox
w k
in jected
ĠA Y
ĠS LP
ĠS ofosbuvir
ag ger
ay ers
Ġad renergic
Ġdi version
ĠW elfare
ures is
ĠRe ported
Ġ14 3
Ġliver s
ĠImmun ofluorescence
Ġdyn am
MT s
Ġendoscop e
ux ol
ĠHM G
Ġdend rites
ĠEnter obacter
Ġprioriti zed
fluor ouracil
ĠKCN Q
al g
Ġw atch
Ġb low
om avirus
ul izumab
Ġth read
ĠC ut
ir s
ĠH CP
ĠN u
ond er
Ġconf erred
Ġeffect ors
Ġso ils
Ġcardi ology
Ġdist ension
IP S
ocl opram
idi ol
ĠAdj usted
burg h
Ġ(âĢ ĺ
Ġexec ution
ĠArter ial
Ġrefine ment
ĠPrev entive
Ġreprogram ming
relim inary
oclopram ide
7 50
W atch
d T
Ġa rous
en riched
Ġh i
Ġg rand
ĠC ellular
if ery
ĠP ere
ĠP DA
ĠH amilton
duc tase
pt or
ail ing
Ġrel ied
ĠK o
Ġ19 57
Ġnon diabetic
Ġinvol untary
ĠY ears
Ġgran ule
ĠPol and
Ġassemb le
ĠNeu ros
Ġrot ating
ostr uct
Ġconstrain ed
Ġstrept ococcal
Ġtric yclic
Ġdenti stry
Ġagric ulture
Ġplas min
ĠImmedi ate
iderm al
L INE
n an
id ated
ĠS RE
ĠP NA
em ergent
ub ble
Ġdiff us
Ġun vaccinated
Ġmon ocyt
Ġappropri ateness
kn ock
Ġneon ate
Ġren dered
Ġpolyp ropylene
ĠPS I
ĠUnder standing
ĠAdj ust
ĠAdoles cents
ĠMitochond rial
Ġprerequ isite
m ectin
ti ation
Ġre acts
Ġn ut
Ġl amp
ĠA di
ag mus
ri o
pl asm
ĠE dition
ĠE co
ĠB up
ĠG D
Ġper itoneum
Ġun protected
arg ing
Ġvol t
Ġvol atile
dom et
Ġeth ambutol
Ġfat ality
201 4
UT IONS
Ġgranul oma
ĠMass achusetts
Ġa head
ro tal
Ġg B
ab utin
oc ycline
ag glut
ĠD ol
ri valent
ore th
ĠB ottles
our t
ĠU L
ox ia
Ġcol pos
ĠAl d
cr istine
tis m
Ġsk ip
Ġz o
ĠDos es
EM S
Ġsepar ating
occ up
Ġcal oric
Ġarrow heads
Ġdeb ossed
Ġcomputer ized
ĠEss ential
morbid ities
ĠFlor ida
Ġsemiconduc tor
Ġcontradic t
Ġpollut ants
Ï ģ
in se
Ġs tic
Ġs ight
Ġl opinavir
Ġis ch
st ra
Ġdise ased
Ġmethod ologies
of i
Â° ,
Ġexerc ising
ĠHy d
Ġincorpor ates
ĠMechan ical
Ġmess enger
Ġfoss il
Ġjustif ies
ĠHen ry
ĠTay lor
2 11
g us
el ium
el ian
ĠThe ore
ĠR it
ĠR ET
ĠN CD
Ġrec onc
asc ent
Ġtra pping
Ġur anium
Ġphen olic
Ġspecial ties
rogen ital
ĠInter view
angi ogenic
ĠSU PP
Ġpit ch
Ġsick le
Ġpip e
Ġamp hetamine
Ġemp ower
Ġmidw ives
E m
U A
W ang
r id
s olid
Ġl umin
Ġl osing
ĠS ymptomatic
ĠF O
ĠF as
ak ia
ple asant
ĠAn c
ĠJ un
CC s
oper itoneum
Ġi P
ĠImmun obl
Ġpy ogenes
ĠFl uid
Ġglass es
Ġdepth s
Ġgranul omatous
oglyc an
ĠCaucas ians
Ġfabric ation
Ġteac her
ĠBang lades
Ther mo
individ ual
Ã Ģ
Ġt ion
ar rays
et ra
ĠM SD
ĠM otor
Ġse voflurane
ĠG TA
ines terase
Ġhum oral
ob server
20 9
az odone
ores p
Ġinvestig ational
ai re
Ġcal f
Ġprem en
med etomidine
mod ifying
Ġcompet ency
ĠCle arly
onom ous
Ġenorm ous
T N
Ġd well
im ilar
Ġcon clusive
ow ered
ĠS at
ĠP MA
ĠG ive
Ġper taining
ĠL TC
Ġco v
val ently
Ġam nes
CT CT
Ġmy ocl
arc tion
int ra
Ġdam aging
ĠInf lammatory
Ġrev olution
urse ment
iol itis
ĠBacter ia
Ġgad olinium
ĠEGB E
C ol
S w
d ys
e or
t ag
ul ph
ĠC AL
Ġst aphyl
ch all
ĠW istar
ĠCo administration
Ġneuro fib
pha rose
Ġmill ig
Ġampl itudes
Ġcreat ine
App endix
ĠElim ination
S anta
p a
p rec
Ġin ward
us ers
el ly
ur ations
il k
ere rs
Ġ2 27
se gment
em ann
ap ore
Ġapp rais
Ġro ds
Ġexam s
DA S
ĠAll ergy
26 0
29 5
Ġshort age
be havi
Ġmorph ogenesis
Ġste ep
Ġchol inergic
Ġmim ics
Ġpup s
Ġimmunobl ot
ĠTur key
inucle otide
Ġont ology
Ġcad mium
obac illus
Ġphotoc oagulation
Ġhyperther mia
Ġkne es
Ġaper ture
N ICE
O E
f ri
ĠS ize
ĠM CA
em ploy
Ġdis integr
ĠB arb
Ġse w
ĠG mb
Ġpre di
ĠL AB
ĠÂ º
Ġinform al
Ġhyp om
25 4
CR T
ĠTo urette
Ġachie vable
ĠCom ments
sh ort
aster ide
Ġanomal ous
Ġerythem atous
Ġappend icitis
Ġimper ative
ĠEryth romycin
ĠCRI SPR
0 27
R OS
d ural
e vidence
m r
m orph
t ypically
Â ´
ac avir
ol lic
ce re
ĠC ul
ĠS irt
ĠH aw
ĠR oc
ĠR oss
ĠB K
Ġcomp ares
ĠO k
Ġno v
Ġsystem ically
ĠSt ation
Ġnew s
ĠAc ross
ĠSc heme
ĠCon ventional
Ġbacter icidal
aw ed
clus ter
ĠMan ufact
Ġaz athioprine
block er
NI H
Ġly ophil
Ġdestroy ed
Ġvasoconstr iction
Ġsynov ial
Ġlonge vity
K s
R M
m yc
o unt
on us
Ġo t
it our
Ġ5 000
25 6
ĠSup plement
ĠAb b
ĠInt ensive
Ġpen icill
rep itant
Ġdisturb ed
Ġcytos ine
target ing
ĠAntib iotics
Ġunf avorable
B SA
Y L
c ulture
ĠS anger
Ġac yclovir
ĠIn vent
we ed
ass ays
ĠV E
Ġout reach
ĠEx clusion
Ġhapp ened
Ġcoag ulopathy
ĠAntib ody
uron ium
Ġdent ure
Ġiv acaftor
Ġneurot oxicity
c ast
Ġa lemtuzumab
Ġd in
id us
ĠD AG
ĠR IP
yl van
ox ine
ik on
Ġ16 1
fact ors
ĠGen Bank
ats u
ĠGene va
ĠBe ing
PR O
Ġfore nsic
ĠDel ta
Ġhomolog ue
Ġsn RNA
Ġtrim ethoprim
Ġpersist ently
ĠGGT CC
ĠAz ithromycin
Ġcovari ance
itour inary
J A
M in
n asal
o etin
r imal
s paring
Ġc in
Ġfor tification
ati zation
ĠM EK
ĠH s
ad ip
ass aemia
CT D
Ġmut ational
Ġline arly
Ġcall ing
34 5
Ġlater ally
Ġsch olars
Ġgood s
Ġsee ing
Ġpoly acrylamide
ibr utinib
Ġprote ome
OL D
Ġfin ished
Ġden aturation
Ġdry ness
mi RNA
Ġindust ries
Ġfaecal is
Ġdraf ted
Ġbench mark
Ġoxal ate
ĠEb ola
Ġparesthes ia
R el
Y FP
f ahan
t oxic
Ø ®
Ġb lo
Ġg ame
ĠI TS
ĠP om
ĠP ancreatic
ver ted
ĠD ick
Ġinc arcer
ĠB h
ob le
Ġext ensions
Ġpub lish
RI S
Ġanaly te
rag ue
ĠSer t
Ġarth roplasty
ĠGl i
ĠProg ressive
Ġfoot wear
blind ed
ĠPri ze
Ġempir ic
Ġpuls ed
Ġplas tid
Ġdispar ity
ĠAur ora
uxol itinib
B ase
V E
Ã ±
Ġa vian
ĠP osterior
Ġat resia
Ġun adjusted
anc ial
Ġdet ects
Ġmo unt
Ġel ast
Ġapproach ing
ST R
ĠPM L
methyl ation
ĠCTT N
ĠDerm at
ĠPerc utaneous
ĠWell come
Ġmush room
ĠJack son
eke eping
inatum omab
h azard
l ines
o active
Ġp us
is tive
ĠT U
ter oidal
Ġ2 75
Ġ19 68
av our
co ag
ex amic
Ġmy ocytes
ters titial
struc tive
rot hel
ĠPers istent
Ġpi peracillin
ĠBL Ls
ĠHel ic
ĠPs A
ĠDN MT
o encephal
Ġt al
Ġs atellite
at omic
Ġan ecd
Ġn ascent
ĠA ATCC
ab a
op ian
ĠD ac
ĠL ed
Ġab and
ĠV entricular
Ġsim pler
Ġpost mortem
amin ated
AP C
MI M
Ġprec lude
des igned
Ġsmok er
UN EL
ocarcin omas
Ġtur ning
Ġwilling ness
ĠAnders on
ĠElectrocardi ogram
0 22
p el
Ġ ibrutinib
in stein
Ġp ra
Ġst oma
st ant
Ġwas hes
ĠF MT
Ġch ip
end azole
est rogen
Ġinf antile
Ġit er
ast asis
ide a
ach i
ĠCh k
20 6
CA R
Ġ15 2
ĠTrans fer
Ġdysfunction al
ĠOp tical
ĠHel p
Ġbring s
Ġsustain able
enec a
adel phia
p f
u ters
at z
ur ge
ow ing
Ġat e
di rect
ĠE KG
Ġpar itaprevir
erv es
Ġ19 40
ax o
Ġtri ad
Ġgener ator
âĢĻ )
16 17
Ġorder ing
Ġhom ozyg
Ġstimul atory
ĠImmun o
Ġcatal ysis
ĠCL E
cy steine
nucle otide
ĠGo ogle
rus kal
Ġinsec ticide
Ġcounsel ed
Ġaliqu ots
o ep
ĠC orn
ĠS EC
op les
Ġac clim
ĠF SH
ri asis
ĠE SC
ĠL AD
Ġsp ans
tis ing
05 8
ĠCon vention
26 6
col ored
ĠUV B
Ġï Ĥ
Ġpolyc ystic
Ġtuberc ulin
Ġsynthe tase
ĠProlong ed
r ists
Ġm unic
ing ing
Ġ2 36
Ġinc isions
ĠN ak
pt on
Ġop ens
ĠJ IA
ix aban
Ġwork load
Ġlab elling
Ġchem oprophylaxis
Ġte ach
Ġpa rotid
Ġacet onide
Ġtrig eminal
sm okers
Ġcentr ally
ĠAF M
ĠEM G
opa edic
Ġbath room
Ġdiscipl ine
Ġnotice able
develop ed
ĠOverex pression
C om
M art
R eg
Ï ķ
Ġw ires
it riol
Ġto es
os tigmine
if entanil
ure as
ĠH SC
ĠF X
ĠR AGE
Ġass ure
Ġinter ne
cl av
Ġobserv able
ins tit
ĠY ear
mon itoring
SP s
Ġind igenous
Ġrequ ests
Ġhepat ocyte
Ġorth odontic
Ġbreak fast
Ġrecruit ing
olip ids
ĠPV Z
ĠQues tions
ĠTi O
Ġimmig rants
Ġginsen osides
Ġevacu ation
Ġarres ted
N on
Ġp ores
Ġin k
Ġf t
Ġh os
Ġst ature
oc a
Ġdis position
oul try
NA L
af ety
ĠRe habilitation
ĠCon n
utri ents
Ġheter ochrom
Ġbo ot
Ġenti tled
arin ic
Ġbronch oscopy
Ġcys titis
ĠConsid eration
Ġneurotransmit ters
ĠAsth ma
ĠGmb H
H G
M IC
id en
Ġis otype
ut z
og g
tr uct
we ak
ĠJ ans
Ġbi osynthetic
ob actam
ĠY am
22 8
inf ectious
29 7
ier ce
ĠCo hen
ĠAD V
Ġstimul ant
Ġlig aments
Ġextra vasation
enic ill
uns aturated
Ġsimpl est
tem is
Ġsplen omegaly
Ġib uprofen
Ġapprais als
ĠInvent ory
K S
L EMENT
\ ,
v aptan
Ġb ird
ĠT ric
Ġth io
ĠS ed
og aster
ĠIn formed
ĠN ec
Ġpres ynaptic
ace a
Ġ19 67
plic ates
Ġmic rop
ful l
22 4
Ġdiss ip
Ġmill ions
ĠMet formin
Ġdecl ining
Ġden om
ĠDevelop mental
Ġthank s
Ġmultiv ariable
Ġank yl
ĠBel ow
ĠSY BR
Ġile us
ymer ase
ĠParen ts
Ġtransamin ases
Ġscaven ging
Ġbend amustine
Ġgeneralis able
viewe e
0 28
5 21
C ar
R b
he art
om ass
ur ch
Ġg ermination
Ġcon vention
ĠC i
ĠL yme
one gative
Ġexp ir
Ġexp osing
Ġam ni
Ġsp ro
Ġdes cript
ĠAl ong
Ġhy phae
19 3
AA RT
ĠX P
Ġphen obarbital
Ġelectr icity
ĠST EMI
rag matic
Ġ26 4
Ġtransfer ring
Ġinser ting
ĠPT P
Ġmar riage
ifer ol
ĠEpidem iological
Ġmono amine
ĠHer pes
Ġcataly ze
Ġaccommod ation
Ġscin tigraphy
J un
f ound
h ans
u f
Ġ ?
uc ine
Ġde hydrated
Ġen al
Ġhy al
âĪ Ĺ
Ġsim ulate
az osin
Ġadv ancing
ool ed
ĠTr yp
Ġinst ant
Ġmonit ors
Ġconver gence
ĠGe org
Ġbot ulism
FL AG
Ġrect us
ĠIdentif ying
Ġhapl oid
ĠMel an
Ġphag ocytosis
Ġtac tile
Ġnecro tizing
ĠCollabor ation
Ġuniqu ely
J ECT
P ol
s igma
Ä ģ
Ġd ol
ĠT DI
Ġn ad
Ġal endronate
ĠP SD
Ġcl ots
Ġinter disciplinary
Ġval ued
27 0
Ġemploy ers
Ġaccum ulates
hydro us
sm oking
ĠEl derly
ĠPK A
rox ine
Ġdysp epsia
Ġdens it
Ġpp b
headed ness
Ġâ© ¾
Ġfric tion
Sah aran
Ġenal april
q PCR
Ġt il
Ġs axagliptin
ot uzumab
ĠC ab
ĠS in
ĠM ep
ĠM ah
ĠN eck
Ġgen otypic
Ġsim plicity
AT GT
19 95
30 3
els on
Ġbreast fed
pre p
Ġcat ast
Ġdil ute
Ġcut s
ĠCompar isons
ĠRem ove
Ġdur ability
ĠEqu ipment
Ġirre levant
Ġmol ars
cobacter ia
Ġfen ofib
Ġsubpop ulations
ĠInser t
Ġt ort
Ġc ens
ĠC ontinue
ĠW ik
ĠU g
Ġtri p
Ġloc ate
az obactam
Ġ16 4
Ġ16 7
ĠDi arrhea
Ġfer ment
Ġecon omy
Ġfibr ils
Ġmineral ization
Ġwel ders
ĠSequ encing
Ġamen able
Ġshrink age
Ġredis tribution
Ġhus band
c ontinu
s it
Ġb ivalent
Ġg amet
ati zed
ĠD EN
ĠD BP
pos terior
pro vid
23 8
roph osph
ĠDe g
ED TA
ĠCH F
IG O
Ġtet ramer
Ġchlor obenzene
Ġpig mented
Ġjob s
ĠMM WR
ĠGastro enter
Ġintramuscular ly
Ġeat en
Ġphospholip id
Ġvox el
CHO P
ophthalm itis
Ġmonocyt ogenes
5 49
M HC
n ew
Ġc f
le a
ĠP ower
Ġex foli
ĠF inn
ĠN ative
ĠB BB
Ġcar tr
crib e
ie u
Ġpsych omotor
go tic
ĠAT CC
ĠDef iciency
Ġevid ences
Ġanastom otic
Ġpreferen tial
oreg ional
Ġsubcl avian
g reg
Ġ ut
en v
er ad
or ously
it ability
Ġf amine
Ġre form
ul osin
ĠT ST
ĠT RAF
Ġh ollow
Ġcon idia
ĠM RA
Ġres ins
Ġinc h
Ġcomp ute
Ġit erative
and ed
Ġanti diabetic
Ġimm ersion
osph a
ĠAm pl
Ġline zolid
RI T
ĠWh ich
emb edded
ams ulosin
Ġana plastic
Ġtet ram
Ġneurop rot
Ġolig odend
ĠProvid ers
Ġrhabdomy olysis
Ġorthog onal
ylvan ia
/ (
Ġo mega
ur ities
Ġl ign
ĠC RS
Ġex ocytosis
ĠH RT
ĠL ac
Ġun t
Ġun pleasant
Ġsub divided
Ġsc ene
ne u
Ġunder way
Ġ15 9
Ġshort est
Ġprop ranolol
Ġamin es
ĠSec Y
ĠIs fahan
Ġmelan ogaster
Ġauto immunity
ĠAp plications
Ġscler osing
Ġchol era
Ġadapt ations
ĠNum bers
Ġfa ith
Ġpyr id
ĠPBM Cs
Ġbiotin ylated
Ġdeploy ed
Ġmultif ocal
Ġlec ture
ĠEnc our
c ognitive
v ial
Ġo u
Ġo cean
Ġb uck
id ic
Ġl aid
op oside
ĠM SC
th y
ine urin
Ġsh aft
ĠIn struc
ist ol
Ġint u
Ġgroup ing
yl inder
of acial
pro BNP
uk i
ĠIV US
Ġpharmac odynamic
Ġgu an
Ġcal ories
ah l
oxid ation
Ġinterf eres
Ġprincip ally
Ġphyl ogeny
Ġimmunosupp ressed
Ġwarm ing
iat ry
ĠADA R
Ġoveres timated
ĠPlace bo
copl asma
h ow
i ologist
Ġt io
re mitting
Ġp ter
ic he
id um
ĠS pect
ĠF ile
ĠL ang
ap amil
Ġbut ter
Ġbi oinformatics
ĠCl indamycin
reg ulating
reg ulates
ES C
ĠMed ium
29 2
trans lated
ĠSp ontaneous
ĠPar is
Ġfluores cein
Ġaff erent
Ġelement ary
Ġillustr ation
ĠState ments
Ġcit ations
Ġemphas izes
ĠProvid ing
ĠEg ypt
istos omiasis
) âĢĶ
M a
ĠT EA
ĠP reliminary
am oto
ĠD ays
Ġwe alth
Ġspec ifi
Ġmod ular
ĠK T
Ġsp asticity
alc iferol
05 5
gr ant
Ġche ek
Ġintro duc
Ġpolymer ases
ĠCor p
Ġdoub led
Ġrect ang
Ar g
ĠGer iatric
ĠCB F
ĠIsol ation
Fl ag
galact osidase
Ġimmunocomp etent
Ġlep rosy
H s
p ressive
Å ĳÄ
Ġn ails
im m
im ents
ot onic
Ġcon vey
ĠThe ory
ud a
ĠH UV
ĠR NF
ch amber
ĠL ateral
Ġsc rap
Ġsc ram
Ġrel uct
rapy ramidal
av udine
Ġop ium
bl ing
Ġpharmac ists
ĠQu ad
Ġgr asp
ĠEM B
Ġvacu ole
oler ance
nucle ar
po or
ĠTum ors
ĠPak istan
Ġimmunomod ulatory
Ġvoc ab
Vi ew
M N
M ac
a ver
a ph
v y
Â §
ĭ ħ
in ces
Ġc ows
Ġd ural
st ar
rom al
ĠM IN
ĠD s
ĠG BS
ĠW AT
ĠV ision
Ġpers u
Ġdem yel
CA UTIONS
Ġorgan elle
Ġ14 1
Ġpsych otropic
34 3
Ġlip osomal
ĠPl anning
Ġtransfer ase
MA X
[...]
